1a
00
3e
56
12
41
5e
63
22
45
60
0f
02
51
3c
58
4a
23
21
5a
28
44
2b
37
28
15
1a
61
53
10
43
17
30
15
14
09
45
1c
29
2e
63
05
00
3e
12
46
55
5c
17
45
24
0f
40
17
29
15
3a
11
06
4b
24
1b
06
63
1c
31
63
1c
47
09
26
00
40
4f
3a
35
5f
0a
41
20
5e
42
06
59
5f
5a
05
2e
01
33
2c
0a
2a
22
31
3c
06
2e
17
04
51
38
57
58
07
39
1d
0b
54
19
52
41
54
2a
20
07
23
53
3a
52
23
26
17
1f
55
5b
59
4a
0d
38
1d
40
27
13
5d
09
58
4d
06
44
28
47
40
58
3f
42
0b
00
0d
36
52
2c
63
4d
23
0e
5d
27
51
14
44
4c
09
49
0c
09
37
2f
63
16
54
37
04
07
3b
3a
5a
28
22
2f
2a
5c
1e
16
19
39
23
02
30
48
1c
52
24
23
5d
25
02
08
1e
33
33
50
14
61
19
52
21
02
0e
60
21
3a
1d
23
5c
1f
63
29
45
51
0e
57
40
39
3b
24
3a
0a
47
37
50
18
3a
34
08
56
07
3a
35
4f
2e
0c
37
5d
0e
18
3a
36
3f
12
63
05
4f
59
25
59
26
2a
32
2a
2f
36
3e
2c
2e
27
54
52
3f
0f
13
19
04
17
43
3a
2c
06
50
16
31
3a
44
51
0f
22
39
3c
1d
3f
00
08
22
2e
08
35
54
60
18
52
4f
14
29
5d
39
20
31
1d
27
42
19
24
05
1b
4e
1c
52
5c
0b
23
3f
00
20
56
4a
3a
05
0a
39
20
30
3d
50
2a
36
21
11
54
35
63
0b
45
0a
3c
01
0b
4a
4e
61
10
3c
27
59
0d
4c
3f
54
27
5a
23
2c
22
45
0b
31
07
43
4c
38
2f
5f
1a
42
43
3f
04
33
5b
58
23
01
40
40
2b
33
25
01
21
1c
3e
33
53
5e
1e
2c
39
27
21
30
3a
60
3d
12
19
25
35
0f
0d
34
2a
09
2d
2c
38
58
3d
1c
18
32
30
30
36
46
1c
36
08
45
62
1a
56
10
4c
0f
57
22
20
4b
17
26
33
40
45
2e
07
0e
47
47
12
03
57
36
49
36
42
22
3b
3d
5a
50
47
19
5e
11
3a
19
53
3d
5e
22
55
08
5e
5c
30
60
56
39
58
4c
25
2e
13
43
0c
19
2a
5a
2f
00
58
3d
60
4d
17
31
5a
1e
36
45
07
2b
0c
07
35
5f
5a
59
36
33
18
0a
40
1c
2e
61
4b
13
60
43
2c
62
05
0d
2c
07
48
4b
0a
2a
00
32
14
09
3a
40
36
46
01
4d
0b
2f
35
5f
50
54
3b
58
3d
0a
02
39
20
32
48
2b
56
45
4d
09
09
20
58
08
57
5d
31
62
56
2e
1c
14
4a
23
07
2e
40
61
10
4b
52
3e
03
56
2a
41
33
10
3d
18
1c
23
08
17
5a
5c
2f
35
3c
34
14
45
46
1b
62
35
3f
08
3e
04
21
3a
38
01
41
59
43
11
07
45
61
07
2b
00
32
18
36
32
24
5a
02
37
2f
41
4d
42
4c
46
43
56
56
42
5a
54
5e
4b
32
51
1a
4d
05
39
24
3a
01
02
3c
54
03
3c
28
5a
08
5a
44
2f
30
4b
51
48
37
0b
21
0a
30
5c
45
12
3b
17
2d
4e
25
1a
4e
2c
17
37
0a
29
1f
3f
0a
11
0e
62
50
19
18
38
3f
46
26
29
02
2c
5e
12
48
32
37
3b
32
03
57
46
07
29
1b
4e
16
5a
32
5d
21
33
49
0b
41
48
5b
28
0b
60
22
53
40
39
51
17
1d
51
2a
49
01
17
03
00
14
24
5a
3c
1a
2a
1e
5b
3f
50
08
2c
02
1e
28
31
33
61
14
27
5e
60
22
28
11
3d
4c
22
45
4a
01
0e
45
33
23
3c
2e
3b
1b
5f
01
0d
3e
0d
1c
45
24
08
52
26
17
5d
22
5e
18
38
32
03
1e
1d
2e
1e
15
2f
07
02
04
08
28
59
1c
32
31
51
13
10
12
1d
1c
0c
56
18
0b
63
54
23
60
18
06
28
33
56
47
44
13
5c
12
50
5f
20
1f
4c
1e
5e
27
1c
4c
09
57
3a
0e
0e
3e
53
37
03
25
2c
28
14
1a
20
22
07
0a
2b
25
57
3d
3e
2a
46
60
1d
31
23
16
39
04
57
53
14
3f
15
3c
44
5f
62
3c
1b
0a
44
1f
5a
1a
20
26
45
26
1c
27
15
55
58
14
0a
5c
2a
3a
10
59
51
27
45
3d
22
21
08
43
4d
42
3b
24
4c
54
32
3e
1c
4e
2a
22
48
41
3f
52
26
1b
52
37
49
30
3d
23
5d
37
38
00
1d
33
2a
38
28
60
00
47
32
08
0e
3d
52
48
3c
1c
56
29
55
59
53
2c
56
5e
5e
11
50
29
06
40
47
02
50
06
4f
30
12
42
04
48
2f
43
1d
1f
30
2a
0b
45
1a
03
3b
1a
41
63
27
50
5e
5d
44
51
0d
53
17
57
39
24
43
61
00
43
60
2c
2a
50
26
47
0d
3a
00
2a
34
0c
0e
49
25
41
14
14
36
26
2d
54
16
57
0c
38
59
36
05
0e
52
52
5f
4a
32
1f
5f
3f
23
1f
1c
10
34
52
63
2f
1d
02
0d
43
12
3c
60
33
38
0a
04
1a
5f
21
1a
01
2d
19
19
55
35
13
56
46
5e
2d
3a
00
4e
1d
1a
02
56
55
38
25
2a
29
3c
63
3f
06
11
37
4f
53
0b
0e
2b
1a
62
38
0d
23
63
04
59
59
4c
39
35
4b
00
16
14
2e
33
48
2a
5c
02
1a
26
3a
27
38
36
23
21
2a
30
53
1a
00
3e
56
12
41
5e
63
22
45
60
0f
02
51
3c
58
4a
23
21
5a
28
44
2b
37
28
15
1a
61
53
10
43
17
30
15
14
09
45
1c
29
2e
63
05
00
3e
12
46
55
5c
17
45
24
0f
40
17
29
15
3a
11
06
4b
24
1b
06
63
1c
31
63
1c
47
09
26
00
40
4f
3a
35
5f
0a
41
20
5e
42
06
59
5f
5a
05
2e
01
33
2c
0a
2a
22
31
3c
06
2e
17
04
51
38
57
58
07
39
1d
0b
54
19
52
41
54
2a
20
07
23
53
3a
52
23
26
17
1f
55
5b
59
4a
0d
38
1d
40
27
13
5d
09
58
4d
06
44
28
47
40
58
3f
42
0b
00
0d
36
52
2c
63
4d
23
0e
5d
27
51
14
44
4c
09
49
0c
09
37
2f
63
16
54
37
04
07
3b
3a
5a
28
22
2f
2a
5c
1e
16
19
39
23
02
30
48
1c
52
24
23
5d
25
02
08
1e
33
33
50
14
61
19
52
21
02
0e
60
21
3a
1d
23
5c
1f
63
29
45
51
0e
57
40
39
3b
24
3a
0a
47
37
50
18
3a
34
08
56
07
3a
35
4f
2e
0c
37
5d
0e
18
3a
36
3f
12
63
05
4f
59
25
59
26
2a
32
2a
2f
36
3e
2c
2e
27
54
52
3f
0f
13
19
04
17
43
3a
2c
06
50
16
31
3a
44
51
0f
22
39
3c
1d
3f
00
08
22
2e
08
35
54
60
18
52
4f
14
29
5d
39
20
31
1d
27
42
19
24
05
1b
4e
1c
52
5c
0b
23
3f
00
20
56
4a
3a
05
0a
39
20
30
3d
50
2a
36
21
11
54
35
63
0b
45
0a
3c
01
0b
4a
4e
61
10
3c
27
59
0d
4c
3f
54
27
5a
23
2c
22
45
0b
31
07
43
4c
38
2f
5f
1a
42
43
3f
04
33
5b
58
23
01
40
40
2b
33
25
01
21
1c
3e
33
53
5e
1e
2c
39
27
21
30
3a
60
3d
12
19
25
35
0f
0d
34
2a
09
2d
2c
38
58
3d
1c
18
32
30
30
36
46
1c
36
08
45
62
1a
56
10
4c
0f
57
22
20
4b
17
26
33
40
45
2e
07
0e
47
47
12
03
57
36
49
36
42
22
3b
3d
5a
50
47
19
5e
11
3a
19
53
3d
5e
22
55
08
5e
5c
30
60
56
39
58
4c
25
2e
13
43
0c
19
2a
5a
2f
00
58
3d
60
4d
17
31
5a
1e
36
45
07
2b
0c
07
35
5f
5a
59
36
33
18
0a
40
1c
2e
61
4b
13
60
43
2c
62
05
0d
2c
07
48
4b
0a
2a
00
32
14
09
3a
40
36
46
01
4d
0b
2f
35
5f
50
54
3b
58
3d
0a
02
39
20
32
48
2b
56
45
4d
09
09
20
58
08
57
5d
31
62
56
2e
1c
14
4a
23
07
2e
40
61
10
4b
52
3e
03
56
2a
41
33
10
3d
18
1c
23
08
17
5a
5c
2f
35
3c
34
14
45
46
1b
62
35
3f
08
3e
04
21
3a
38
01
41
59
43
11
07
45
61
07
2b
00
32
18
36
32
24
5a
02
37
2f
41
4d
42
4c
46
43
56
56
42
5a
54
5e
4b
32
51
1a
4d
05
39
24
3a
01
02
3c
54
03
3c
28
5a
08
5a
44
2f
30
4b
51
48
37
0b
21
0a
30
5c
45
12
3b
17
2d
4e
25
1a
4e
2c
17
37
0a
29
1f
3f
0a
11
0e
62
50
19
18
38
3f
46
26
29
02
2c
5e
12
48
32
37
3b
32
03
57
46
07
29
1b
4e
16
5a
32
5d
21
33
49
0b
41
48
5b
28
0b
60
22
53
40
39
51
17
1d
51
2a
49
01
17
03
00
14
24
5a
3c
1a
2a
1e
5b
3f
50
08
2c
02
1e
28
31
33
61
14
27
5e
60
22
28
11
3d
4c
22
45
4a
01
0e
45
33
23
3c
2e
3b
1b
5f
01
0d
3e
0d
1c
45
24
08
52
26
17
5d
22
5e
18
38
32
03
1e
1d
2e
1e
15
2f
07
02
04
08
28
59
1c
32
31
51
13
10
12
1d
1c
0c
56
18
0b
63
54
23
60
18
06
28
33
56
47
44
13
5c
12
50
5f
20
1f
4c
1e
5e
27
1c
4c
09
57
3a
0e
0e
3e
53
37
03
25
2c
28
14
1a
20
22
07
0a
2b
25
57
3d
3e
2a
46
60
1d
31
23
16
39
04
57
53
14
3f
15
3c
44
5f
62
3c
1b
0a
44
1f
5a
1a
20
26
45
26
1c
27
15
55
58
14
0a
5c
2a
3a
10
59
51
27
45
3d
22
21
08
43
4d
42
3b
24
4c
54
32
3e
1c
4e
2a
22
48
41
3f
52
26
1b
52
37
49
30
3d
23
5d
37
38
00
1d
33
2a
38
28
60
00
47
32
08
0e
3d
52
48
3c
1c
56
29
55
59
53
2c
56
5e
5e
11
50
29
06
40
47
02
50
06
4f
30
12
42
04
48
2f
43
1d
1f
30
2a
0b
45
1a
03
3b
1a
41
63
27
50
5e
5d
44
51
0d
53
17
57
39
24
43
61
00
43
60
2c
2a
50
26
47
0d
3a
00
2a
34
0c
0e
49
25
41
14
14
36
26
2d
54
16
57
0c
38
59
36
05
0e
52
52
5f
4a
32
1f
5f
3f
23
1f
1c
10
34
52
63
2f
1d
02
0d
43
12
3c
60
33
38
0a
04
1a
5f
21
1a
01
2d
19
19
55
35
13
56
46
5e
2d
3a
00
4e
1d
1a
02
56
55
38
25
2a
29
3c
63
3f
06
11
37
4f
53
0b
0e
2b
1a
62
38
0d
23
63
04
59
59
4c
39
35
4b
00
16
14
2e
33
48
2a
5c
02
1a
26
3a
27
38
36
23
21
2a
30
53
1a
00
3e
56
12
41
5e
63
22
45
60
0f
02
51
3c
58
4a
23
21
5a
28
44
2b
37
28
15
1a
61
53
10
43
17
30
15
14
09
45
1c
29
2e
63
05
00
3e
12
46
55
5c
17
45
24
0f
40
17
29
15
3a
11
06
4b
24
1b
06
63
1c
31
63
1c
47
09
26
00
40
4f
3a
35
5f
0a
41
20
5e
42
06
59
5f
5a
05
2e
01
33
2c
0a
2a
22
31
3c
06
2e
17
04
51
38
57
58
07
39
1d
0b
54
19
52
41
54
2a
20
07
23
53
3a
52
23
26
17
1f
55
5b
59
4a
0d
38
1d
40
27
13
5d
09
58
4d
06
44
28
47
40
58
3f
42
0b
00
0d
36
52
2c
63
4d
23
0e
5d
27
51
14
44
4c
09
49
0c
09
37
2f
63
16
54
37
04
07
3b
3a
5a
28
22
2f
2a
5c
1e
16
19
39
23
02
30
48
1c
52
24
23
5d
25
02
08
1e
33
33
50
14
61
19
52
21
02
0e
60
21
3a
1d
23
5c
1f
63
29
45
51
0e
57
40
39
3b
24
3a
0a
47
37
50
18
3a
34
08
56
07
3a
35
4f
2e
0c
37
5d
0e
18
3a
36
3f
12
63
05
4f
59
25
59
26
2a
32
2a
2f
36
3e
2c
2e
27
54
52
3f
0f
13
19
04
17
43
3a
2c
06
50
16
31
3a
44
51
0f
22
39
3c
1d
3f
00
08
22
2e
08
35
54
60
18
52
4f
14
29
5d
39
20
31
1d
27
42
19
24
05
1b
4e
1c
52
5c
0b
23
3f
00
20
56
4a
3a
05
0a
39
20
30
3d
50
2a
36
21
11
54
35
63
0b
45
0a
3c
01
0b
4a
4e
61
10
3c
27
59
0d
4c
3f
54
27
5a
23
2c
22
45
0b
31
07
43
4c
38
2f
5f
1a
42
43
3f
04
33
5b
58
23
01
40
40
2b
33
25
01
21
1c
3e
33
53
5e
1e
2c
39
27
21
30
3a
60
3d
12
19
25
35
0f
0d
34
2a
09
2d
2c
38
58
3d
1c
18
32
30
30
36
46
1c
36
08
45
62
1a
56
10
4c
0f
57
22
20
4b
17
26
33
40
45
2e
07
0e
47
47
12
03
57
36
49
36
42
22
3b
3d
5a
50
47
19
5e
11
3a
19
53
3d
5e
22
55
08
5e
5c
30
60
56
39
58
4c
25
2e
13
43
0c
19
2a
5a
2f
00
58
3d
60
4d
17
31
5a
1e
36
45
07
2b
0c
07
35
5f
5a
59
36
33
18
0a
40
1c
2e
61
4b
13
60
43
2c
62
05
0d
2c
07
48
4b
0a
2a
00
32
14
09
3a
40
36
46
01
4d
0b
2f
35
5f
50
54
3b
58
3d
0a
02
39
20
32
48
2b
56
45
4d
09
09
20
58
08
57
5d
31
62
56
2e
1c
14
4a
23
07
2e
40
61
10
4b
52
3e
03
56
2a
41
33
10
3d
18
1c
23
08
17
5a
5c
2f
35
3c
34
14
45
46
1b
62
35
3f
08
3e
04
21
3a
38
01
41
59
43
11
07
45
61
07
2b
00
32
18
36
32
24
5a
02
37
2f
41
4d
42
4c
46
43
56
56
42
5a
54
5e
4b
32
51
1a
4d
05
39
24
3a
01
02
3c
54
03
3c
28
5a
08
5a
44
2f
30
4b
51
48
37
0b
21
0a
30
5c
45
12
3b
17
2d
4e
25
1a
4e
2c
17
37
0a
29
1f
3f
0a
11
0e
62
50
19
18
38
3f
46
26
29
02
2c
5e
12
48
32
37
3b
32
03
57
46
07
29
1b
4e
16
5a
32
5d
21
33
49
0b
41
48
5b
28
0b
60
22
53
40
39
51
17
1d
51
2a
49
01
17
03
00
14
24
5a
3c
1a
2a
1e
5b
3f
50
08
2c
02
1e
28
31
33
61
14
27
5e
60
22
28
11
3d
4c
22
45
4a
01
0e
45
33
23
3c
2e
3b
1b
5f
01
0d
3e
0d
1c
45
24
08
52
26
17
5d
22
5e
18
38
32
03
1e
1d
2e
1e
15
2f
07
02
04
08
28
59
1c
32
31
51
13
10
12
1d
1c
0c
56
18
0b
63
54
23
60
18
06
28
33
56
47
44
13
5c
12
50
5f
20
1f
4c
1e
5e
27
1c
4c
09
57
3a
0e
0e
3e
53
37
03
25
2c
28
14
1a
20
22
07
0a
2b
25
57
3d
3e
2a
46
60
1d
31
23
16
39
04
57
53
14
3f
15
3c
44
5f
62
3c
1b
0a
44
1f
5a
1a
20
26
45
26
1c
27
15
55
58
14
0a
5c
2a
3a
10
59
51
27
45
3d
22
21
08
43
4d
42
3b
24
4c
54
32
3e
1c
4e
2a
22
48
41
3f
52
26
1b
52
37
49
30
3d
23
5d
37
38
00
1d
33
2a
38
28
60
00
47
32
08
0e
3d
52
48
3c
1c
56
29
55
59
53
2c
56
5e
5e
11
50
29
06
40
47
02
50
06
4f
30
12
42
04
48
2f
43
1d
1f
30
2a
0b
45
1a
03
3b
1a
41
63
27
50
5e
5d
44
51
0d
53
17
57
39
24
43
61
00
43
60
2c
2a
50
26
47
0d
3a
00
2a
34
0c
0e
49
25
41
14
14
36
26
2d
54
16
57
0c
38
59
36
05
0e
52
52
5f
4a
32
1f
5f
3f
23
1f
1c
10
34
52
63
2f
1d
02
0d
43
12
3c
60
33
38
0a
04
1a
5f
21
1a
01
2d
19
19
55
35
13
56
46
5e
2d
3a
00
4e
1d
1a
02
56
55
38
25
2a
29
3c
63
3f
06
11
37
4f
53
0b
0e
2b
1a
62
38
0d
23
63
04
59
59
4c
39
35
4b
00
16
14
2e
33
48
2a
5c
02
1a
26
3a
27
38
36
23
21
2a
30
53
1a
00
3e
56
12
41
5e
63
22
45
60
0f
02
51
3c
58
4a
23
21
5a
28
44
2b
37
28
15
1a
61
53
10
43
17
30
15
14
09
45
1c
29
2e
63
05
00
3e
12
46
55
5c
17
45
24
0f
40
17
29
15
3a
11
06
4b
24
1b
06
63
1c
31
63
1c
47
09
26
00
40
4f
3a
35
5f
0a
41
20
5e
42
06
59
5f
5a
05
2e
01
33
2c
0a
2a
22
31
3c
06
2e
17
04
51
38
57
58
07
39
1d
0b
54
19
52
41
54
2a
20
07
23
53
3a
52
23
26
17
1f
55
5b
59
4a
0d
38
1d
40
27
13
5d
09
58
4d
06
44
28
47
40
58
3f
42
0b
00
0d
36
52
2c
63
4d
23
0e
5d
27
51
14
44
4c
09
49
0c
09
37
2f
63
16
54
37
04
07
3b
3a
5a
28
22
2f
2a
5c
1e
16
19
39
23
02
30
48
1c
52
24
23
5d
25
02
08
1e
33
33
50
14
61
19
52
21
02
0e
60
21
3a
1d
23
5c
1f
63
29
45
51
0e
57
40
39
3b
24
3a
0a
47
37
50
18
3a
34
08
56
07
3a
35
4f
2e
0c
37
5d
0e
18
3a
36
3f
12
63
05
4f
59
25
59
26
2a
32
2a
2f
36
3e
2c
2e
27
54
52
3f
0f
13
19
04
17
43
3a
2c
06
50
16
31
3a
44
51
0f
22
39
3c
1d
3f
00
08
22
2e
08
35
54
60
18
52
4f
14
29
5d
39
20
31
1d
27
42
19
24
05
1b
4e
1c
52
5c
0b
23
3f
00
20
56
4a
3a
05
0a
39
20
30
3d
50
2a
36
21
11
54
35
63
0b
45
0a
3c
01
0b
4a
4e
61
10
3c
27
59
0d
4c
3f
54
27
5a
23
2c
22
45
0b
31
07
43
4c
38
2f
5f
1a
42
43
3f
04
33
5b
58
23
01
40
40
2b
33
25
01
21
1c
3e
33
53
5e
1e
2c
39
27
21
30
3a
60
3d
12
19
25
35
0f
0d
34
2a
09
2d
2c
38
58
3d
1c
18
32
30
30
36
46
1c
36
08
45
62
1a
56
10
4c
0f
57
22
20
4b
17
26
33
40
45
2e
07
0e
47
47
12
03
57
36
49
36
42
22
3b
3d
5a
50
47
19
5e
11
3a
19
53
3d
5e
22
55
08
5e
5c
30
60
56
39
58
4c
25
2e
13
43
0c
19
2a
5a
2f
00
58
3d
60
4d
17
31
5a
1e
36
45
07
2b
0c
07
35
5f
5a
59
36
33
18
0a
40
1c
2e
61
4b
13
60
43
2c
62
05
0d
2c
07
48
4b
0a
2a
00
32
14
09
3a
40
36
46
01
4d
0b
2f
35
5f
50
54
3b
58
3d
0a
02
39
20
32
48
2b
56
45
4d
09
09
20
58
08
57
5d
31
62
56
2e
1c
14
4a
23
07
2e
40
61
10
4b
52
3e
03
56
2a
41
33
10
3d
18
1c
23
08
17
5a
5c
2f
35
3c
34
14
45
46
1b
62
35
3f
08
3e
04
21
3a
38
01
41
59
43
11
07
45
61
07
2b
00
32
18
36
32
24
5a
02
37
2f
41
4d
42
4c
46
43
56
56
42
5a
54
5e
4b
32
51
1a
4d
05
39
24
3a
01
02
3c
54
03
3c
28
5a
08
5a
44
2f
30
4b
51
48
37
0b
21
0a
30
5c
45
12
3b
17
2d
4e
25
1a
4e
2c
17
37
0a
29
1f
3f
0a
11
0e
62
50
19
18
38
3f
46
26
29
02
2c
5e
12
48
32
37
3b
32
03
57
46
07
29
1b
4e
16
5a
32
5d
21
33
49
0b
41
48
5b
28
0b
60
22
53
40
39
51
17
1d
51
2a
49
01
17
03
00
14
24
5a
3c
1a
2a
1e
5b
3f
50
08
2c
02
1e
28
31
33
61
14
27
5e
60
22
28
11
3d
4c
22
45
4a
01
0e
45
33
23
3c
2e
3b
1b
5f
01
0d
3e
0d
1c
45
24
08
52
26
17
5d
22
5e
18
38
32
03
1e
1d
2e
1e
15
2f
07
02
04
08
28
59
1c
32
31
51
13
10
12
1d
1c
0c
56
18
0b
63
54
23
60
18
06
28
33
56
47
44
13
5c
12
50
5f
20
1f
4c
1e
5e
27
1c
4c
09
57
3a
0e
0e
3e
53
37
03
25
2c
28
14
1a
20
22
07
0a
2b
25
57
3d
3e
2a
46
60
1d
31
23
16
39
04
57
53
14
3f
15
3c
44
5f
62
3c
1b
0a
44
1f
5a
1a
20
26
45
26
1c
27
15
55
58
14
0a
5c
2a
3a
10
59
51
27
45
3d
22
21
08
43
4d
42
3b
24
4c
54
32
3e
1c
4e
2a
22
48
41
3f
52
26
1b
52
37
49
30
3d
23
5d
37
38
00
1d
33
2a
38
28
60
00
47
32
08
0e
3d
52
48
3c
1c
56
29
55
59
53
2c
56
5e
5e
11
50
29
06
40
47
02
50
06
4f
30
12
42
04
48
2f
43
1d
1f
30
2a
0b
45
1a
03
3b
1a
41
63
27
50
5e
5d
44
51
0d
53
17
57
39
24
43
61
00
43
60
2c
2a
50
26
47
0d
3a
00
2a
34
0c
0e
49
25
41
14
14
36
26
2d
54
16
57
0c
38
59
36
05
0e
52
52
5f
4a
32
1f
5f
3f
23
1f
1c
10
34
52
63
2f
1d
02
0d
43
12
3c
60
33
38
0a
04
1a
5f
21
1a
01
2d
19
19
55
35
13
56
46
5e
2d
3a
00
4e
1d
1a
02
56
55
38
25
2a
29
3c
63
3f
06
11
37
4f
53
0b
0e
2b
1a
62
38
0d
23
63
04
59
59
4c
39
35
4b
00
16
14
2e
33
48
2a
5c
02
1a
26
3a
27
38
36
23
21
2a
30
53
1a
00
3e
56
12
41
5e
63
22
45
60
0f
02
51
3c
58
4a
23
21
5a
28
44
2b
37
28
15
1a
61
53
10
43
17
30
15
14
09
45
1c
29
2e
63
05
00
3e
12
46
55
5c
17
45
24
0f
40
17
29
15
3a
11
06
4b
24
1b
06
63
1c
31
63
1c
47
09
26
00
40
4f
3a
35
5f
0a
41
20
5e
42
06
59
5f
5a
05
2e
01
33
2c
0a
2a
22
31
3c
06
2e
17
04
51
38
57
58
07
39
1d
0b
54
19
52
41
54
2a
20
07
23
53
3a
52
23
26
17
1f
55
5b
59
4a
0d
38
1d
40
27
13
5d
09
58
4d
06
44
28
47
40
58
3f
42
0b
00
0d
36
52
2c
63
4d
23
0e
5d
27
51
14
44
4c
09
49
0c
09
37
2f
63
16
54
37
04
07
3b
3a
5a
28
22
2f
2a
5c
1e
16
19
39
23
02
30
48
1c
52
24
23
5d
25
02
08
1e
33
33
50
14
61
19
52
21
02
0e
60
21
3a
1d
23
5c
1f
63
29
45
51
0e
57
40
39
3b
24
3a
0a
47
37
50
18
3a
34
08
56
07
3a
35
4f
2e
0c
37
5d
0e
18
3a
36
3f
12
63
05
4f
59
25
59
26
2a
32
2a
2f
36
3e
2c
2e
27
54
52
3f
0f
13
19
04
17
43
3a
2c
06
50
16
31
3a
44
51
0f
22
39
3c
1d
3f
00
08
22
2e
08
35
54
60
18
52
4f
14
29
5d
39
20
31
1d
27
42
19
24
05
1b
4e
1c
52
5c
0b
23
3f
00
20
56
4a
3a
05
0a
39
20
30
3d
50
2a
36
21
11
54
35
63
0b
45
0a
3c
01
0b
4a
4e
61
10
3c
27
59
0d
4c
3f
54
27
5a
23
2c
22
45
0b
31
07
43
4c
38
2f
5f
1a
42
43
3f
04
33
5b
58
23
01
40
40
2b
33
25
01
21
1c
3e
33
53
5e
1e
2c
39
27
21
30
3a
60
3d
12
19
25
35
0f
0d
34
2a
09
2d
2c
38
58
3d
1c
18
32
30
30
36
46
1c
36
08
45
62
1a
56
10
4c
0f
57
22
20
4b
17
26
33
40
45
2e
07
0e
47
47
12
03
57
36
49
36
42
22
3b
3d
5a
50
47
19
5e
11
3a
19
53
3d
5e
22
55
08
5e
5c
30
60
56
39
58
4c
25
2e
13
43
0c
19
2a
5a
2f
00
58
3d
60
4d
17
31
5a
1e
36
45
07
2b
0c
07
35
5f
5a
59
36
33
18
0a
40
1c
2e
61
4b
13
60
43
2c
62
05
0d
2c
07
48
4b
0a
2a
00
32
14
09
3a
40
36
46
01
4d
0b
2f
35
5f
50
54
3b
58
3d
0a
02
39
20
32
48
2b
56
45
4d
09
09
20
58
08
57
5d
31
62
56
2e
1c
14
4a
23
07
2e
40
61
10
4b
52
3e
03
56
2a
41
33
10
3d
18
1c
23
08
17
5a
5c
2f
35
3c
34
14
45
46
1b
62
35
3f
08
3e
04
21
3a
38
01
41
59
43
11
07
45
61
07
2b
00
32
18
36
32
24
5a
02
37
2f
41
4d
42
4c
46
43
56
56
42
5a
54
5e
4b
32
51
1a
4d
05
39
24
3a
01
02
3c
54
03
3c
28
5a
08
5a
44
2f
30
4b
51
48
37
0b
21
0a
30
5c
45
12
3b
17
2d
4e
25
1a
4e
2c
17
37
0a
29
1f
3f
0a
11
0e
62
50
19
18
38
3f
46
26
29
02
2c
5e
12
48
32
37
3b
32
03
57
46
07
29
1b
4e
16
5a
32
5d
21
33
49
0b
41
48
5b
28
0b
60
22
53
40
39
51
17
1d
51
2a
49
01
17
03
00
14
24
5a
3c
1a
2a
1e
5b
3f
50
08
2c
02
1e
28
31
33
61
14
27
5e
60
22
28
11
3d
4c
22
45
4a
01
0e
45
33
23
3c
2e
3b
1b
5f
01
0d
3e
0d
1c
45
24
08
52
26
17
5d
22
5e
18
38
32
03
1e
1d
2e
1e
15
2f
07
02
04
08
28
59
1c
32
31
51
13
10
12
1d
1c
0c
56
18
0b
63
54
23
60
18
06
28
33
56
47
44
13
5c
12
50
5f
20
1f
4c
1e
5e
27
1c
4c
09
57
3a
0e
0e
3e
53
37
03
25
2c
28
14
1a
20
22
07
0a
2b
25
57
3d
3e
2a
46
60
1d
31
23
16
39
04
57
53
14
3f
15
3c
44
5f
62
3c
1b
0a
44
1f
5a
1a
20
26
45
26
1c
27
15
55
58
14
0a
5c
2a
3a
10
59
51
27
45
3d
22
21
08
43
4d
42
3b
24
4c
54
32
3e
1c
4e
2a
22
48
41
3f
52
26
1b
52
37
49
30
3d
23
5d
37
38
00
1d
33
2a
38
28
60
00
47
32
08
0e
3d
52
48
3c
1c
56
29
55
59
53
2c
56
5e
5e
11
50
29
06
40
47
02
50
06
4f
30
12
42
04
48
2f
43
1d
1f
30
2a
0b
45
1a
03
3b
1a
41
63
27
50
5e
5d
44
51
0d
53
17
57
39
24
43
61
00
43
60
2c
2a
50
26
47
0d
3a
00
2a
34
0c
0e
49
25
41
14
14
36
26
2d
54
16
57
0c
38
59
36
05
0e
52
52
5f
4a
32
1f
5f
3f
23
1f
1c
10
34
52
63
2f
1d
02
0d
43
12
3c
60
33
38
0a
04
1a
5f
21
1a
01
2d
19
19
55
35
13
56
46
5e
2d
3a
00
4e
1d
1a
02
56
55
38
25
2a
29
3c
63
3f
06
11
37
4f
53
0b
0e
2b
1a
62
38
0d
23
63
04
59
59
4c
39
35
4b
00
16
14
2e
33
48
2a
5c
02
1a
26
3a
27
38
36
23
21
2a
30
53
1a
00
3e
56
12
41
5e
63
22
45
60
0f
02
51
3c
58
4a
23
21
5a
28
44
2b
37
28
15
1a
61
53
10
43
17
30
15
14
09
45
1c
29
2e
63
05
00
3e
12
46
55
5c
17
45
24
0f
40
17
29
15
3a
11
06
4b
24
1b
06
63
1c
31
63
1c
47
09
26
00
40
4f
3a
35
5f
0a
41
20
5e
42
06
59
5f
5a
05
2e
01
33
2c
0a
2a
22
31
3c
06
2e
17
04
51
38
57
58
07
39
1d
0b
54
19
52
41
54
2a
20
07
23
53
3a
52
23
26
17
1f
55
5b
59
4a
0d
38
1d
40
27
13
5d
09
58
4d
06
44
28
47
40
58
3f
42
0b
00
0d
36
52
2c
63
4d
23
0e
5d
27
51
14
44
4c
09
49
0c
09
37
2f
63
16
54
37
04
07
3b
3a
5a
28
22
2f
2a
5c
1e
16
19
39
23
02
30
48
1c
52
24
23
5d
25
02
08
1e
33
33
50
14
61
19
52
21
02
0e
60
21
3a
1d
23
5c
1f
63
29
45
51
0e
57
40
39
3b
24
3a
0a
47
37
50
18
3a
34
08
56
07
3a
35
4f
2e
0c
37
5d
0e
18
3a
36
3f
12
63
05
4f
59
25
59
26
2a
32
2a
2f
36
3e
2c
2e
27
54
52
3f
0f
13
19
04
17
43
3a
2c
06
50
16
31
3a
44
51
0f
22
39
3c
1d
3f
00
08
22
2e
08
35
54
60
18
52
4f
14
29
5d
39
20
31
1d
27
42
19
24
05
1b
4e
1c
52
5c
0b
23
3f
00
20
56
4a
3a
05
0a
39
20
30
3d
50
2a
36
21
11
54
35
63
0b
45
0a
3c
01
0b
4a
4e
61
10
3c
27
59
0d
4c
3f
54
27
5a
23
2c
22
45
0b
31
07
43
4c
38
2f
5f
1a
42
43
3f
04
33
5b
58
23
01
40
40
2b
33
25
01
21
1c
3e
33
53
5e
1e
2c
39
27
21
30
3a
60
3d
12
19
25
35
0f
0d
34
2a
09
2d
2c
38
58
3d
1c
18
32
30
30
36
46
1c
36
08
45
62
1a
56
10
4c
0f
57
22
20
4b
17
26
33
40
45
2e
07
0e
47
47
12
03
57
36
49
36
42
22
3b
3d
5a
50
47
19
5e
11
3a
19
53
3d
5e
22
55
08
5e
5c
30
60
56
39
58
4c
25
2e
13
43
0c
19
2a
5a
2f
00
58
3d
60
4d
17
31
5a
1e
36
45
07
2b
0c
07
35
5f
5a
59
36
33
18
0a
40
1c
2e
61
4b
13
60
43
2c
62
05
0d
2c
07
48
4b
0a
2a
00
32
14
09
3a
40
36
46
01
4d
0b
2f
35
5f
50
54
3b
58
3d
0a
02
39
20
32
48
2b
56
45
4d
09
09
20
58
08
57
5d
31
62
56
2e
1c
14
4a
23
07
2e
40
61
10
4b
52
3e
03
56
2a
41
33
10
3d
18
1c
23
08
17
5a
5c
2f
35
3c
34
14
45
46
1b
62
35
3f
08
3e
04
21
3a
38
01
41
59
43
11
07
45
61
07
2b
00
32
18
36
32
24
5a
02
37
2f
41
4d
42
4c
46
43
56
56
42
5a
54
5e
4b
32
51
1a
4d
05
39
24
3a
01
02
3c
54
03
3c
28
5a
08
5a
44
2f
30
4b
51
48
37
0b
21
0a
30
5c
45
12
3b
17
2d
4e
25
1a
4e
2c
17
37
0a
29
1f
3f
0a
11
0e
62
50
19
18
38
3f
46
26
29
02
2c
5e
12
48
32
37
3b
32
03
57
46
07
29
1b
4e
16
5a
32
5d
21
33
49
0b
41
48
5b
28
0b
60
22
53
40
39
51
17
1d
51
2a
49
01
17
03
00
14
24
5a
3c
1a
2a
1e
5b
3f
50
08
2c
02
1e
28
31
33
61
14
27
5e
60
22
28
11
3d
4c
22
45
4a
01
0e
45
33
23
3c
2e
3b
1b
5f
01
0d
3e
0d
1c
45
24
08
52
26
17
5d
22
5e
18
38
32
03
1e
1d
2e
1e
15
2f
07
02
04
08
28
59
1c
32
31
51
13
10
12
1d
1c
0c
56
18
0b
63
54
23
60
18
06
28
33
56
47
44
13
5c
12
50
5f
20
1f
4c
1e
5e
27
1c
4c
09
57
3a
0e
0e
3e
53
37
03
25
2c
28
14
1a
20
22
07
0a
2b
25
57
3d
3e
2a
46
60
1d
31
23
16
39
04
57
53
14
3f
15
3c
44
5f
62
3c
1b
0a
44
1f
5a
1a
20
26
45
26
1c
27
15
55
58
14
0a
5c
2a
3a
10
59
51
27
45
3d
22
21
08
43
4d
42
3b
24
4c
54
32
3e
1c
4e
2a
22
48
41
3f
52
26
1b
52
37
49
30
3d
23
5d
37
38
00
1d
33
2a
38
28
60
00
47
32
08
0e
3d
52
48
3c
1c
56
29
55
59
53
2c
56
5e
5e
11
50
29
06
40
47
02
50
06
4f
30
12
42
04
48
2f
43
1d
1f
30
2a
0b
45
1a
03
3b
1a
41
63
27
50
5e
5d
44
51
0d
53
17
57
39
24
43
61
00
43
60
2c
2a
50
26
47
0d
3a
00
2a
34
0c
0e
49
25
41
14
14
36
26
2d
54
16
57
0c
38
59
36
05
0e
52
52
5f
4a
32
1f
5f
3f
23
1f
1c
10
34
52
63
2f
1d
02
0d
43
12
3c
60
33
38
0a
04
1a
5f
21
1a
01
2d
19
19
55
35
13
56
46
5e
2d
3a
00
4e
1d
1a
02
56
55
38
25
2a
29
3c
63
3f
06
11
37
4f
53
0b
0e
2b
1a
62
38
0d
23
63
04
59
59
4c
39
35
4b
00
16
14
2e
33
48
2a
5c
02
1a
26
3a
27
38
36
23
21
2a
30
53
1a
00
3e
56
12
41
5e
63
22
45
60
0f
02
51
3c
58
4a
23
21
5a
28
44
2b
37
28
15
1a
61
53
10
43
17
30
15
14
09
45
1c
29
2e
63
05
00
3e
12
46
55
5c
17
45
24
0f
40
17
29
15
3a
11
06
4b
24
1b
06
63
1c
31
63
1c
47
09
26
00
40
4f
3a
35
5f
0a
41
20
5e
42
06
59
5f
5a
05
2e
01
33
2c
0a
2a
22
31
3c
06
2e
17
04
51
38
57
58
07
39
1d
0b
54
19
52
41
54
2a
20
07
23
53
3a
52
23
26
17
1f
55
5b
59
4a
0d
38
1d
40
27
13
5d
09
58
4d
06
44
28
47
40
58
3f
42
0b
00
0d
36
52
2c
63
4d
23
0e
5d
27
51
14
44
4c
09
49
0c
09
37
2f
63
16
54
37
04
07
3b
3a
5a
28
22
2f
2a
5c
1e
16
19
39
23
02
30
48
1c
52
24
23
5d
25
02
08
1e
33
33
50
14
61
19
52
21
02
0e
60
21
3a
1d
23
5c
1f
63
29
45
51
0e
57
40
39
3b
24
3a
0a
47
37
50
18
3a
34
08
56
07
3a
35
4f
2e
0c
37
5d
0e
18
3a
36
3f
12
63
05
4f
59
25
59
26
2a
32
2a
2f
36
3e
2c
2e
27
54
52
3f
0f
13
19
04
17
43
3a
2c
06
50
16
31
3a
44
51
0f
22
39
3c
1d
3f
00
08
22
2e
08
35
54
60
18
52
4f
14
29
5d
39
20
31
1d
27
42
19
24
05
1b
4e
1c
52
5c
0b
23
3f
00
20
56
4a
3a
05
0a
39
20
30
3d
50
2a
36
21
11
54
35
63
0b
45
0a
3c
01
0b
4a
4e
61
10
3c
27
59
0d
4c
3f
54
27
5a
23
2c
22
45
0b
31
07
43
4c
38
2f
5f
1a
42
43
3f
04
33
5b
58
23
01
40
40
2b
33
25
01
21
1c
3e
33
53
5e
1e
2c
39
27
21
30
3a
60
3d
12
19
25
35
0f
0d
34
2a
09
2d
2c
38
58
3d
1c
18
32
30
30
36
46
1c
36
08
45
62
1a
56
10
4c
0f
57
22
20
4b
17
26
33
40
45
2e
07
0e
47
47
12
03
57
36
49
36
42
22
3b
3d
5a
50
47
19
5e
11
3a
19
53
3d
5e
22
55
08
5e
5c
30
60
56
39
58
4c
25
2e
13
43
0c
19
2a
5a
2f
00
58
3d
60
4d
17
31
5a
1e
36
45
07
2b
0c
07
35
5f
5a
59
36
33
18
0a
40
1c
2e
61
4b
13
60
43
2c
62
05
0d
2c
07
48
4b
0a
2a
00
32
14
09
3a
40
36
46
01
4d
0b
2f
35
5f
50
54
3b
58
3d
0a
02
39
20
32
48
2b
56
45
4d
09
09
20
58
08
57
5d
31
62
56
2e
1c
14
4a
23
07
2e
40
61
10
4b
52
3e
03
56
2a
41
33
10
3d
18
1c
23
08
17
5a
5c
2f
35
3c
34
14
45
46
1b
62
35
3f
08
3e
04
21
3a
38
01
41
59
43
11
07
45
61
07
2b
00
32
18
36
32
24
5a
02
37
2f
41
4d
42
4c
46
43
56
56
42
5a
54
5e
4b
32
51
1a
4d
05
39
24
3a
01
02
3c
54
03
3c
28
5a
08
5a
44
2f
30
4b
51
48
37
0b
21
0a
30
5c
45
12
3b
17
2d
4e
25
1a
4e
2c
17
37
0a
29
1f
3f
0a
11
0e
62
50
19
18
38
3f
46
26
29
02
2c
5e
12
48
32
37
3b
32
03
57
46
07
29
1b
4e
16
5a
32
5d
21
33
49
0b
41
48
5b
28
0b
60
22
53
40
39
51
17
1d
51
2a
49
01
17
03
00
14
24
5a
3c
1a
2a
1e
5b
3f
50
08
2c
02
1e
28
31
33
61
14
27
5e
60
22
28
11
3d
4c
22
45
4a
01
0e
45
33
23
3c
2e
3b
1b
5f
01
0d
3e
0d
1c
45
24
08
52
26
17
5d
22
5e
18
38
32
03
1e
1d
2e
1e
15
2f
07
02
04
08
28
59
1c
32
31
51
13
10
12
1d
1c
0c
56
18
0b
63
54
23
60
18
06
28
33
56
47
44
13
5c
12
50
5f
20
1f
4c
1e
5e
27
1c
4c
09
57
3a
0e
0e
3e
53
37
03
25
2c
28
14
1a
20
22
07
0a
2b
25
57
3d
3e
2a
46
60
1d
31
23
16
39
04
57
53
14
3f
15
3c
44
5f
62
3c
1b
0a
44
1f
5a
1a
20
26
45
26
1c
27
15
55
58
14
0a
5c
2a
3a
10
59
51
27
45
3d
22
21
08
43
4d
42
3b
24
4c
54
32
3e
1c
4e
2a
22
48
41
3f
52
26
1b
52
37
49
30
3d
23
5d
37
38
00
1d
33
2a
38
28
60
00
47
32
08
0e
3d
52
48
3c
1c
56
29
55
59
53
2c
56
5e
5e
11
50
29
06
40
47
02
50
06
4f
30
12
42
04
48
2f
43
1d
1f
30
2a
0b
45
1a
03
3b
1a
41
63
27
50
5e
5d
44
51
0d
53
17
57
39
24
43
61
00
43
60
2c
2a
50
26
47
0d
3a
00
2a
34
0c
0e
49
25
41
14
14
36
26
2d
54
16
57
0c
38
59
36
05
0e
52
52
5f
4a
32
1f
5f
3f
23
1f
1c
10
34
52
63
2f
1d
02
0d
43
12
3c
60
33
38
0a
04
1a
5f
21
1a
01
2d
19
19
55
35
13
56
46
5e
2d
3a
00
4e
1d
1a
02
56
55
38
25
2a
29
3c
63
3f
06
11
37
4f
53
0b
0e
2b
1a
62
38
0d
23
63
04
59
59
4c
39
35
4b
00
16
14
2e
33
48
2a
5c
02
1a
26
3a
27
38
36
23
21
2a
30
53
1a
00
3e
56
12
41
5e
63
22
45
60
0f
02
51
3c
58
4a
23
21
5a
28
44
2b
37
28
15
1a
61
53
10
43
17
30
15
14
09
45
1c
29
2e
63
05
00
3e
12
46
55
5c
17
45
24
0f
40
17
29
15
3a
11
06
4b
24
1b
06
63
1c
31
63
1c
47
09
26
00
40
4f
3a
35
5f
0a
41
20
5e
42
06
59
5f
5a
05
2e
01
33
2c
0a
2a
22
31
3c
06
2e
17
04
51
38
57
58
07
39
1d
0b
54
19
52
41
54
2a
20
07
23
53
3a
52
23
26
17
1f
55
5b
59
4a
0d
38
1d
40
27
13
5d
09
58
4d
06
44
28
47
40
58
3f
42
0b
00
0d
36
52
2c
63
4d
23
0e
5d
27
51
14
44
4c
09
49
0c
09
37
2f
63
16
54
37
04
07
3b
3a
5a
28
22
2f
2a
5c
1e
16
19
39
23
02
30
48
1c
52
24
23
5d
25
02
08
1e
33
33
50
14
61
19
52
21
02
0e
60
21
3a
1d
23
5c
1f
63
29
45
51
0e
57
40
39
3b
24
3a
0a
47
37
50
18
3a
34
08
56
07
3a
35
4f
2e
0c
37
5d
0e
18
3a
36
3f
12
63
05
4f
59
25
59
26
2a
32
2a
2f
36
3e
2c
2e
27
54
52
3f
0f
13
19
04
17
43
3a
2c
06
50
16
31
3a
44
51
0f
22
39
3c
1d
3f
00
08
22
2e
08
35
54
60
18
52
4f
14
29
5d
39
20
31
1d
27
42
19
24
05
1b
4e
1c
52
5c
0b
23
3f
00
20
56
4a
3a
05
0a
39
20
30
3d
50
2a
36
21
11
54
35
63
0b
45
0a
3c
01
0b
4a
4e
61
10
3c
27
59
0d
4c
3f
54
27
5a
23
2c
22
45
0b
31
07
43
4c
38
2f
5f
1a
42
43
3f
04
33
5b
58
23
01
40
40
2b
33
25
01
21
1c
3e
33
53
5e
1e
2c
39
27
21
30
3a
60
3d
12
19
25
35
0f
0d
34
2a
09
2d
2c
38
58
3d
1c
18
32
30
30
36
46
1c
36
08
45
62
1a
56
10
4c
0f
57
22
20
4b
17
26
33
40
45
2e
07
0e
47
47
12
03
57
36
49
36
42
22
3b
3d
5a
50
47
19
5e
11
3a
19
53
3d
5e
22
55
08
5e
5c
30
60
56
39
58
4c
25
2e
13
43
0c
19
2a
5a
2f
00
58
3d
60
4d
17
31
5a
1e
36
45
07
2b
0c
07
35
5f
5a
59
36
33
18
0a
40
1c
2e
61
4b
13
60
43
2c
62
05
0d
2c
07
48
4b
0a
2a
00
32
14
09
3a
40
36
46
01
4d
0b
2f
35
5f
50
54
3b
58
3d
0a
02
39
20
32
48
2b
56
45
4d
09
09
20
58
08
57
5d
31
62
56
2e
1c
14
4a
23
07
2e
40
61
10
4b
52
3e
03
56
2a
41
33
10
3d
18
1c
23
08
17
5a
5c
2f
35
3c
34
14
45
46
1b
62
35
3f
08
3e
04
21
3a
38
01
41
59
43
11
07
45
61
07
2b
00
32
18
36
32
24
5a
02
37
2f
41
4d
42
4c
46
43
56
56
42
5a
54
5e
4b
32
51
1a
4d
05
39
24
3a
01
02
3c
54
03
3c
28
5a
08
5a
44
2f
30
4b
51
48
37
0b
21
0a
30
5c
45
12
3b
17
2d
4e
25
1a
4e
2c
17
37
0a
29
1f
3f
0a
11
0e
62
50
19
18
38
3f
46
26
29
02
2c
5e
12
48
32
37
3b
32
03
57
46
07
29
1b
4e
16
5a
32
5d
21
33
49
0b
41
48
5b
28
0b
60
22
53
40
39
51
17
1d
51
2a
49
01
17
03
00
14
24
5a
3c
1a
2a
1e
5b
3f
50
08
2c
02
1e
28
31
33
61
14
27
5e
60
22
28
11
3d
4c
22
45
4a
01
0e
45
33
23
3c
2e
3b
1b
5f
01
0d
3e
0d
1c
45
24
08
52
26
17
5d
22
5e
18
38
32
03
1e
1d
2e
1e
15
2f
07
02
04
08
28
59
1c
32
31
51
13
10
12
1d
1c
0c
56
18
0b
63
54
23
60
18
06
28
33
56
47
44
13
5c
12
50
5f
20
1f
4c
1e
5e
27
1c
4c
09
57
3a
0e
0e
3e
53
37
03
25
2c
28
14
1a
20
22
07
0a
2b
25
57
3d
3e
2a
46
60
1d
31
23
16
39
04
57
53
14
3f
15
3c
44
5f
62
3c
1b
0a
44
1f
5a
1a
20
26
45
26
1c
27
15
55
58
14
0a
5c
2a
3a
10
59
51
27
45
3d
22
21
08
43
4d
42
3b
24
4c
54
32
3e
1c
4e
2a
22
48
41
3f
52
26
1b
52
37
49
30
3d
23
5d
37
38
00
1d
33
2a
38
28
60
00
47
32
08
0e
3d
52
48
3c
1c
56
29
55
59
53
2c
56
5e
5e
11
50
29
06
40
47
02
50
06
4f
30
12
42
04
48
2f
43
1d
1f
30
2a
0b
45
1a
03
3b
1a
41
63
27
50
5e
5d
44
51
0d
53
17
57
39
24
43
61
00
43
60
2c
2a
50
26
47
0d
3a
00
2a
34
0c
0e
49
25
41
14
14
36
26
2d
54
16
57
0c
38
59
36
05
0e
52
52
5f
4a
32
1f
5f
3f
23
1f
1c
10
34
52
63
2f
1d
02
0d
43
12
3c
60
33
38
0a
04
1a
5f
21
1a
01
2d
19
19
55
35
13
56
46
5e
2d
3a
00
4e
1d
1a
02
56
55
38
25
2a
29
3c
63
3f
06
11
37
4f
53
0b
0e
2b
1a
62
38
0d
23
63
04
59
59
4c
39
35
4b
00
16
14
2e
33
48
2a
5c
02
1a
26
3a
27
38
36
23
21
2a
30
53
1a
00
3e
56
12
41
5e
63
22
45
60
0f
02
51
3c
58
4a
23
21
5a
28
44
2b
37
28
15
1a
61
53
10
43
17
30
15
14
09
45
1c
29
2e
63
05
00
3e
12
46
55
5c
17
45
24
0f
40
17
29
15
3a
11
06
4b
24
1b
06
63
1c
31
63
1c
47
09
26
00
40
4f
3a
35
5f
0a
41
20
5e
42
06
59
5f
5a
05
2e
01
33
2c
0a
2a
22
31
3c
06
2e
17
04
51
38
57
58
07
39
1d
0b
54
19
52
41
54
2a
20
07
23
53
3a
52
23
26
17
1f
55
5b
59
4a
0d
38
1d
40
27
13
5d
09
58
4d
06
44
28
47
40
58
3f
42
0b
00
0d
36
52
2c
63
4d
23
0e
5d
27
51
14
44
4c
09
49
0c
09
37
2f
63
16
54
37
04
07
3b
3a
5a
28
22
2f
2a
5c
1e
16
19
39
23
02
30
48
1c
52
24
23
5d
25
02
08
1e
33
33
50
14
61
19
52
21
02
0e
60
21
3a
1d
23
5c
1f
63
29
45
51
0e
57
40
39
3b
24
3a
0a
47
37
50
18
3a
34
08
56
07
3a
35
4f
2e
0c
37
5d
0e
18
3a
36
3f
12
63
05
4f
59
25
59
26
2a
32
2a
2f
36
3e
2c
2e
27
54
52
3f
0f
13
19
04
17
43
3a
2c
06
50
16
31
3a
44
51
0f
22
39
3c
1d
3f
00
08
22
2e
08
35
54
60
18
52
4f
14
29
5d
39
20
31
1d
27
42
19
24
05
1b
4e
1c
52
5c
0b
23
3f
00
20
56
4a
3a
05
0a
39
20
30
3d
50
2a
36
21
11
54
35
63
0b
45
0a
3c
01
0b
4a
4e
61
10
3c
27
59
0d
4c
3f
54
27
5a
23
2c
22
45
0b
31
07
43
4c
38
2f
5f
1a
42
43
3f
04
33
5b
58
23
01
40
40
2b
33
25
01
21
1c
3e
33
53
5e
1e
2c
39
27
21
30
3a
60
3d
12
19
25
35
0f
0d
34
2a
09
2d
2c
38
58
3d
1c
18
32
30
30
36
46
1c
36
08
45
62
1a
56
10
4c
0f
57
22
20
4b
17
26
33
40
45
2e
07
0e
47
47
12
03
57
36
49
36
42
22
3b
3d
5a
50
47
19
5e
11
3a
19
53
3d
5e
22
55
08
5e
5c
30
60
56
39
58
4c
25
2e
13
43
0c
19
2a
5a
2f
00
58
3d
60
4d
17
31
5a
1e
36
45
07
2b
0c
07
35
5f
5a
59
36
33
18
0a
40
1c
2e
61
4b
13
60
43
2c
62
05
0d
2c
07
48
4b
0a
2a
00
32
14
09
3a
40
36
46
01
4d
0b
2f
35
5f
50
54
3b
58
3d
0a
02
39
20
32
48
2b
56
45
4d
09
09
20
58
08
57
5d
31
62
56
2e
1c
14
4a
23
07
2e
40
61
10
4b
52
3e
03
56
2a
41
33
10
3d
18
1c
23
08
17
5a
5c
2f
35
3c
34
14
45
46
1b
62
35
3f
08
3e
04
21
3a
38
01
41
59
43
11
07
45
61
07
2b
00
32
18
36
32
24
5a
02
37
2f
41
4d
42
4c
46
43
56
56
42
5a
54
5e
4b
32
51
1a
4d
05
39
24
3a
01
02
3c
54
03
3c
28
5a
08
5a
44
2f
30
4b
51
48
37
0b
21
0a
30
5c
45
12
3b
17
2d
4e
25
1a
4e
2c
17
37
0a
29
1f
3f
0a
11
0e
62
50
19
18
38
3f
46
26
29
02
2c
5e
12
48
32
37
3b
32
03
57
46
07
29
1b
4e
16
5a
32
5d
21
33
49
0b
41
48
5b
28
0b
60
22
53
40
39
51
17
1d
51
2a
49
01
17
03
00
14
24
5a
3c
1a
2a
1e
5b
3f
50
08
2c
02
1e
28
31
33
61
14
27
5e
60
22
28
11
3d
4c
22
45
4a
01
0e
45
33
23
3c
2e
3b
1b
5f
01
0d
3e
0d
1c
45
24
08
52
26
17
5d
22
5e
18
38
32
03
1e
1d
2e
1e
15
2f
07
02
04
08
28
59
1c
32
31
51
13
10
12
1d
1c
0c
56
18
0b
63
54
23
60
18
06
28
33
56
47
44
13
5c
12
50
5f
20
1f
4c
1e
5e
27
1c
4c
09
57
3a
0e
0e
3e
53
37
03
25
2c
28
14
1a
20
22
07
0a
2b
25
57
3d
3e
2a
46
60
1d
31
23
16
39
04
57
53
14
3f
15
3c
44
5f
62
3c
1b
0a
44
1f
5a
1a
20
26
45
26
1c
27
15
55
58
14
0a
5c
2a
3a
10
59
51
27
45
3d
22
21
08
43
4d
42
3b
24
4c
54
32
3e
1c
4e
2a
22
48
41
3f
52
26
1b
52
37
49
30
3d
23
5d
37
38
00
1d
33
2a
38
28
60
00
47
32
08
0e
3d
52
48
3c
1c
56
29
55
59
53
2c
56
5e
5e
11
50
29
06
40
47
02
50
06
4f
30
12
42
04
48
2f
43
1d
1f
30
2a
0b
45
1a
03
3b
1a
41
63
27
50
5e
5d
44
51
0d
53
17
57
39
24
43
61
00
43
60
2c
2a
50
26
47
0d
3a
00
2a
34
0c
0e
49
25
41
14
14
36
26
2d
54
16
57
0c
38
59
36
05
0e
52
52
5f
4a
32
1f
5f
3f
23
1f
1c
10
34
52
63
2f
1d
02
0d
43
12
3c
60
33
38
0a
04
1a
5f
21
1a
01
2d
19
19
55
35
13
56
46
5e
2d
3a
00
4e
1d
1a
02
56
55
38
25
2a
29
3c
63
3f
06
11
37
4f
53
0b
0e
2b
1a
62
38
0d
23
63
04
59
59
4c
39
35
4b
00
16
14
2e
33
48
2a
5c
02
1a
26
3a
27
38
36
23
21
2a
30
53
1a
00
3e
56
12
41
5e
63
22
45
60
0f
02
51
3c
58
4a
23
21
5a
28
44
2b
37
28
15
1a
61
53
10
43
17
30
15
14
09
45
1c
29
2e
63
05
00
3e
12
46
55
5c
17
45
24
0f
40
17
29
15
3a
11
06
4b
24
1b
06
63
1c
31
63
1c
47
09
26
00
40
4f
3a
35
5f
0a
41
20
5e
42
06
59
5f
5a
05
2e
01
33
2c
0a
2a
22
31
3c
06
2e
17
04
51
38
57
58
07
39
1d
0b
54
19
52
41
54
2a
20
07
23
53
3a
52
23
26
17
1f
55
5b
59
4a
0d
38
1d
40
27
13
5d
09
58
4d
06
44
28
47
40
58
3f
42
0b
00
0d
36
52
2c
63
4d
23
0e
5d
27
51
14
44
4c
09
49
0c
09
37
2f
63
16
54
37
04
07
3b
3a
5a
28
22
2f
2a
5c
1e
16
19
39
23
02
30
48
1c
52
24
23
5d
25
02
08
1e
33
33
50
14
61
19
52
21
02
0e
60
21
3a
1d
23
5c
1f
63
29
45
51
0e
57
40
39
3b
24
3a
0a
47
37
50
18
3a
34
08
56
07
3a
35
4f
2e
0c
37
5d
0e
18
3a
36
3f
12
63
05
4f
59
25
59
26
2a
32
2a
2f
36
3e
2c
2e
27
54
52
3f
0f
13
19
04
17
43
3a
2c
06
50
16
31
3a
44
51
0f
22
39
3c
1d
3f
00
08
22
2e
08
35
54
60
18
52
4f
14
29
5d
39
20
31
1d
27
42
19
24
05
1b
4e
1c
52
5c
0b
23
3f
00
20
56
4a
3a
05
0a
39
20
30
3d
50
2a
36
21
11
54
35
63
0b
45
0a
3c
01
0b
4a
4e
61
10
3c
27
59
0d
4c
3f
54
27
5a
23
2c
22
45
0b
31
07
43
4c
38
2f
5f
1a
42
43
3f
04
33
5b
58
23
01
40
40
2b
33
25
01
21
1c
3e
33
53
5e
1e
2c
39
27
21
30
3a
60
3d
12
19
25
35
0f
0d
34
2a
09
2d
2c
38
58
3d
1c
18
32
30
30
36
46
1c
36
08
45
62
1a
56
10
4c
0f
57
22
20
4b
17
26
33
40
45
2e
07
0e
47
47
12
03
57
36
49
36
42
22
3b
3d
5a
50
47
19
5e
11
3a
19
53
3d
5e
22
55
08
5e
5c
30
60
56
39
58
4c
25
2e
13
43
0c
19
2a
5a
2f
00
58
3d
60
4d
17
31
5a
1e
36
45
07
2b
0c
07
35
5f
5a
59
36
33
18
0a
40
1c
2e
61
4b
13
60
43
2c
62
05
0d
2c
07
48
4b
0a
2a
00
32
14
09
3a
40
36
46
01
4d
0b
2f
35
5f
50
54
3b
58
3d
0a
02
39
20
32
48
2b
56
45
4d
09
09
20
58
08
57
5d
31
62
56
2e
1c
14
4a
23
07
2e
40
61
10
4b
52
3e
03
56
2a
41
33
10
3d
18
1c
23
08
17
5a
5c
2f
35
3c
34
14
45
46
1b
62
35
3f
08
3e
04
21
3a
38
01
41
59
43
11
07
45
61
07
2b
00
32
18
36
32
24
5a
02
37
2f
41
4d
42
4c
46
43
56
56
42
5a
54
5e
4b
32
51
1a
4d
05
39
24
3a
01
02
3c
54
03
3c
28
5a
08
5a
44
2f
30
4b
51
48
37
0b
21
0a
30
5c
45
12
3b
17
2d
4e
25
1a
4e
2c
17
37
0a
29
1f
3f
0a
11
0e
62
50
19
18
38
3f
46
26
29
02
2c
5e
12
48
32
37
3b
32
03
57
46
07
29
1b
4e
16
5a
32
5d
21
33
49
0b
41
48
5b
28
0b
60
22
53
40
39
51
17
1d
51
2a
49
01
17
03
00
14
24
5a
3c
1a
2a
1e
5b
3f
50
08
2c
02
1e
28
31
33
61
14
27
5e
60
22
28
11
3d
4c
22
45
4a
01
0e
45
33
23
3c
2e
3b
1b
5f
01
0d
3e
0d
1c
45
24
08
52
26
17
5d
22
5e
18
38
32
03
1e
1d
2e
1e
15
2f
07
02
04
08
28
59
1c
32
31
51
13
10
12
1d
1c
0c
56
18
0b
63
54
23
60
18
06
28
33
56
47
44
13
5c
12
50
5f
20
1f
4c
1e
5e
27
1c
4c
09
57
3a
0e
0e
3e
53
37
03
25
2c
28
14
1a
20
22
07
0a
2b
25
57
3d
3e
2a
46
60
1d
31
23
16
39
04
57
53
14
3f
15
3c
44
5f
62
3c
1b
0a
44
1f
5a
1a
20
26
45
26
1c
27
15
55
58
14
0a
5c
2a
3a
10
59
51
27
45
3d
22
21
08
43
4d
42
3b
24
4c
54
32
3e
1c
4e
2a
22
48
41
3f
52
26
1b
52
37
49
30
3d
23
5d
37
38
00
1d
33
2a
38
28
60
00
47
32
08
0e
3d
52
48
3c
1c
56
29
55
59
53
2c
56
5e
5e
11
50
29
06
40
47
02
50
06
4f
30
12
42
04
48
2f
43
1d
1f
30
2a
0b
45
1a
03
3b
1a
41
63
27
50
5e
5d
44
51
0d
53
17
57
39
24
43
61
00
43
60
2c
2a
50
26
47
0d
3a
00
2a
34
0c
0e
49
25
41
14
14
36
26
2d
54
16
57
0c
38
59
36
05
0e
52
52
5f
4a
32
1f
5f
3f
23
1f
1c
10
34
52
63
2f
1d
02
0d
43
12
3c
60
33
38
0a
04
1a
5f
21
1a
01
2d
19
19
55
35
13
56
46
5e
2d
3a
00
4e
1d
1a
02
56
55
38
25
2a
29
3c
63
3f
06
11
37
4f
53
0b
0e
2b
1a
62
38
0d
23
63
04
59
59
4c
39
35
4b
00
16
14
2e
33
48
2a
5c
02
1a
26
3a
27
38
36
23
21
2a
30
53
1a
00
3e
56
12
41
5e
63
22
45
60
0f
02
51
3c
58
4a
23
21
5a
28
44
2b
37
28
15
1a
61
53
10
43
17
30
15
14
09
45
1c
29
2e
63
05
00
3e
12
46
55
5c
17
45
24
0f
40
17
29
15
3a
11
06
4b
24
1b
06
63
1c
31
63
1c
47
09
26
00
40
4f
3a
35
5f
0a
41
20
5e
42
06
59
5f
5a
05
2e
01
33
2c
0a
2a
22
31
3c
06
2e
17
04
51
38
57
58
07
39
1d
0b
54
19
52
41
54
2a
20
07
23
53
3a
52
23
26
17
1f
55
5b
59
4a
0d
38
1d
40
27
13
5d
09
58
4d
06
44
28
47
40
58
3f
42
0b
00
0d
36
52
2c
63
4d
23
0e
5d
27
51
14
44
4c
09
49
0c
09
37
2f
63
16
54
37
04
07
3b
3a
5a
28
22
2f
2a
5c
1e
16
19
39
23
02
30
48
1c
52
24
23
5d
25
02
08
1e
33
33
50
14
61
19
52
21
02
0e
60
21
3a
1d
23
5c
1f
63
29
45
51
0e
57
40
39
3b
24
3a
0a
47
37
50
18
3a
34
08
56
07
3a
35
4f
2e
0c
37
5d
0e
18
3a
36
3f
12
63
05
4f
59
25
59
26
2a
32
2a
2f
36
3e
2c
2e
27
54
52
3f
0f
13
19
04
17
43
3a
2c
06
50
16
31
3a
44
51
0f
22
39
3c
1d
3f
00
08
22
2e
08
35
54
60
18
52
4f
14
29
5d
39
20
31
1d
27
42
19
24
05
1b
4e
1c
52
5c
0b
23
3f
00
20
56
4a
3a
05
0a
39
20
30
3d
50
2a
36
21
11
54
35
63
0b
45
0a
3c
01
0b
4a
4e
61
10
3c
27
59
0d
4c
3f
54
27
5a
23
2c
22
45
0b
31
07
43
4c
38
2f
5f
1a
42
43
3f
04
33
5b
58
23
01
40
40
2b
33
25
01
21
1c
3e
33
53
5e
1e
2c
39
27
21
30
3a
60
3d
12
19
25
35
0f
0d
34
2a
09
2d
2c
38
58
3d
1c
18
32
30
30
36
46
1c
36
08
45
62
1a
56
10
4c
0f
57
22
20
4b
17
26
33
40
45
2e
07
0e
47
47
12
03
57
36
49
36
42
22
3b
3d
5a
50
47
19
5e
11
3a
19
53
3d
5e
22
55
08
5e
5c
30
60
56
39
58
4c
25
2e
13
43
0c
19
2a
5a
2f
00
58
3d
60
4d
17
31
5a
1e
36
45
07
2b
0c
07
35
5f
5a
59
36
33
18
0a
40
1c
2e
61
4b
13
60
43
2c
62
05
0d
2c
07
48
4b
0a
2a
00
32
14
09
3a
40
36
46
01
4d
0b
2f
35
5f
50
54
3b
58
3d
0a
02
39
20
32
48
2b
56
45
4d
09
09
20
58
08
57
5d
31
62
56
2e
1c
14
4a
23
07
2e
40
61
10
4b
52
3e
03
56
2a
41
33
10
3d
18
1c
23
08
17
5a
5c
2f
35
3c
34
14
45
46
1b
62
35
3f
08
3e
04
21
3a
38
01
41
59
43
11
07
45
61
07
2b
00
32
18
36
32
24
5a
02
37
2f
41
4d
42
4c
46
43
56
56
42
5a
54
5e
4b
32
51
1a
4d
05
39
24
3a
01
02
3c
54
03
3c
28
5a
08
5a
44
2f
30
4b
51
48
37
0b
21
0a
30
5c
45
12
3b
17
2d
4e
25
1a
4e
2c
17
37
0a
29
1f
3f
0a
11
0e
62
50
19
18
38
3f
46
26
29
02
2c
5e
12
48
32
37
3b
32
03
57
46
07
29
1b
4e
16
5a
32
5d
21
33
49
0b
41
48
5b
28
0b
60
22
53
40
39
51
17
1d
51
2a
49
01
17
03
00
14
24
5a
3c
1a
2a
1e
5b
3f
50
08
2c
02
1e
28
31
33
61
14
27
5e
60
22
28
11
3d
4c
22
45
4a
01
0e
45
33
23
3c
2e
3b
1b
5f
01
0d
3e
0d
1c
45
24
08
52
26
17
5d
22
5e
18
38
32
03
1e
1d
2e
1e
15
2f
07
02
04
08
28
59
1c
32
31
51
13
10
12
1d
1c
0c
56
18
0b
63
54
23
60
18
06
28
33
56
47
44
13
5c
12
50
5f
20
1f
4c
1e
5e
27
1c
4c
09
57
3a
0e
0e
3e
53
37
03
25
2c
28
14
1a
20
22
07
0a
2b
25
57
3d
3e
2a
46
60
1d
31
23
16
39
04
57
53
14
3f
15
3c
44
5f
62
3c
1b
0a
44
1f
5a
1a
20
26
45
26
1c
27
15
55
58
14
0a
5c
2a
3a
10
59
51
27
45
3d
22
21
08
43
4d
42
3b
24
4c
54
32
3e
1c
4e
2a
22
48
41
3f
52
26
1b
52
37
49
30
3d
23
5d
37
38
00
1d
33
2a
38
28
60
00
47
32
08
0e
3d
52
48
3c
1c
56
29
55
59
53
2c
56
5e
5e
11
50
29
06
40
47
02
50
06
4f
30
12
42
04
48
2f
43
1d
1f
30
2a
0b
45
1a
03
3b
1a
41
63
27
50
5e
5d
44
51
0d
53
17
57
39
24
43
61
00
43
60
2c
2a
50
26
47
0d
3a
00
2a
34
0c
0e
49
25
41
14
14
36
26
2d
54
16
57
0c
38
59
36
05
0e
52
52
5f
4a
32
1f
5f
3f
23
1f
1c
10
34
52
63
2f
1d
02
0d
43
12
3c
60
33
38
0a
04
1a
5f
21
1a
01
2d
19
19
55
35
13
56
46
5e
2d
3a
00
4e
1d
1a
02
56
55
38
25
2a
29
3c
63
3f
06
11
37
4f
53
0b
0e
2b
1a
62
38
0d
23
63
04
59
59
4c
39
35
4b
00
16
14
2e
33
48
2a
5c
02
1a
26
3a
27
38
36
23
21
2a
30
53
1a
00
3e
56
12
41
5e
63
22
45
60
0f
02
51
3c
58
4a
23
21
5a
28
44
2b
37
28
15
1a
61
53
10
43
17
30
15
14
09
45
1c
29
2e
63
05
00
3e
12
46
55
5c
17
45
24
0f
40
17
29
15
3a
11
06
4b
24
1b
06
63
1c
31
63
1c
47
09
26
00
40
4f
3a
35
5f
0a
41
20
5e
42
06
59
5f
5a
05
2e
01
33
2c
0a
2a
22
31
3c
06
2e
17
04
51
38
57
58
07
39
1d
0b
54
19
52
41
54
2a
20
07
23
53
3a
52
23
26
17
1f
55
5b
59
4a
0d
38
1d
40
27
13
5d
09
58
4d
06
44
28
47
40
58
3f
42
0b
00
0d
36
52
2c
63
4d
23
0e
5d
27
51
14
44
4c
09
49
0c
09
37
2f
63
16
54
37
04
07
3b
3a
5a
28
22
2f
2a
5c
1e
16
19
39
23
02
30
48
1c
52
24
23
5d
25
02
08
1e
33
33
50
14
61
19
52
21
02
0e
60
21
3a
1d
23
5c
1f
63
29
45
51
0e
57
40
39
3b
24
3a
0a
47
37
50
18
3a
34
08
56
07
3a
35
4f
2e
0c
37
5d
0e
18
3a
36
3f
12
63
05
4f
59
25
59
26
2a
32
2a
2f
36
3e
2c
2e
27
54
52
3f
0f
13
19
04
17
43
3a
2c
06
50
16
31
3a
44
51
0f
22
39
3c
1d
3f
00
08
22
2e
08
35
54
60
18
52
4f
14
29
5d
39
20
31
1d
27
42
19
24
05
1b
4e
1c
52
5c
0b
23
3f
00
20
56
4a
3a
05
0a
39
20
30
3d
50
2a
36
21
11
54
35
63
0b
45
0a
3c
01
0b
4a
4e
61
10
3c
27
59
0d
4c
3f
54
27
5a
23
2c
22
45
0b
31
07
43
4c
38
2f
5f
1a
42
43
3f
04
33
5b
58
23
01
40
40
2b
33
25
01
21
1c
3e
33
53
5e
1e
2c
39
27
21
30
3a
60
3d
12
19
25
35
0f
0d
34
2a
09
2d
2c
38
58
3d
1c
18
32
30
30
36
46
1c
36
08
45
62
1a
56
10
4c
0f
57
22
20
4b
17
26
33
40
45
2e
07
0e
47
47
12
03
57
36
49
36
42
22
3b
3d
5a
50
47
19
5e
11
3a
19
53
3d
5e
22
55
08
5e
5c
30
60
56
39
58
4c
25
2e
13
43
0c
19
2a
5a
2f
00
58
3d
60
4d
17
31
5a
1e
36
45
07
2b
0c
07
35
5f
5a
59
36
33
18
0a
40
1c
2e
61
4b
13
60
43
2c
62
05
0d
2c
07
48
4b
0a
2a
00
32
14
09
3a
40
36
46
01
4d
0b
2f
35
5f
50
54
3b
58
3d
0a
02
39
20
32
48
2b
56
45
4d
09
09
20
58
08
57
5d
31
62
56
2e
1c
14
4a
23
07
2e
40
61
10
4b
52
3e
03
56
2a
41
33
10
3d
18
1c
23
08
17
5a
5c
2f
35
3c
34
14
45
46
1b
62
35
3f
08
3e
04
21
3a
38
01
41
59
43
11
07
45
61
07
2b
00
32
18
36
32
24
5a
02
37
2f
41
4d
42
4c
46
43
56
56
42
5a
54
5e
4b
32
51
1a
4d
05
39
24
3a
01
02
3c
54
03
3c
28
5a
08
5a
44
2f
30
4b
51
48
37
0b
21
0a
30
5c
45
12
3b
17
2d
4e
25
1a
4e
2c
17
37
0a
29
1f
3f
0a
11
0e
62
50
19
18
38
3f
46
26
29
02
2c
5e
12
48
32
37
3b
32
03
57
46
07
29
1b
4e
16
5a
32
5d
21
33
49
0b
41
48
5b
28
0b
60
22
53
40
39
51
17
1d
51
2a
49
01
17
03
00
14
24
5a
3c
1a
2a
1e
5b
3f
50
08
2c
02
1e
28
31
33
61
14
27
5e
60
22
28
11
3d
4c
22
45
4a
01
0e
45
33
23
3c
2e
3b
1b
5f
01
0d
3e
0d
1c
45
24
08
52
26
17
5d
22
5e
18
38
32
03
1e
1d
2e
1e
15
2f
07
02
04
08
28
59
1c
32
31
51
13
10
12
1d
1c
0c
56
18
0b
63
54
23
60
18
06
28
33
56
47
44
13
5c
12
50
5f
20
1f
4c
1e
5e
27
1c
4c
09
57
3a
0e
0e
3e
53
37
03
25
2c
28
14
1a
20
22
07
0a
2b
25
57
3d
3e
2a
46
60
1d
31
23
16
39
04
57
53
14
3f
15
3c
44
5f
62
3c
1b
0a
44
1f
5a
1a
20
26
45
26
1c
27
15
55
58
14
0a
5c
2a
3a
10
59
51
27
45
3d
22
21
08
43
4d
42
3b
24
4c
54
32
3e
1c
4e
2a
22
48
41
3f
52
26
1b
52
37
49
30
3d
23
5d
37
38
00
1d
33
2a
38
28
60
00
47
32
08
0e
3d
52
48
3c
1c
56
29
55
59
53
2c
56
5e
5e
11
50
29
06
40
47
02
50
06
4f
30
12
42
04
48
2f
43
1d
1f
30
2a
0b
45
1a
03
3b
1a
41
63
27
50
5e
5d
44
51
0d
53
17
57
39
24
43
61
00
43
60
2c
2a
50
26
47
0d
3a
00
2a
34
0c
0e
49
25
41
14
14
36
26
2d
54
16
57
0c
38
59
36
05
0e
52
52
5f
4a
32
1f
5f
3f
23
1f
1c
10
34
52
63
2f
1d
02
0d
43
12
3c
60
33
38
0a
04
1a
5f
21
1a
01
2d
19
19
55
35
13
56
46
5e
2d
3a
00
4e
1d
1a
02
56
55
38
25
2a
29
3c
63
3f
06
11
37
4f
53
0b
0e
2b
1a
62
38
0d
23
63
04
59
59
4c
39
35
4b
00
16
14
2e
33
48
2a
5c
02
1a
26
3a
27
38
36
23
21
2a
30
53
1a
00
3e
56
12
41
5e
63
22
45
60
0f
02
51
3c
58
4a
23
21
5a
28
44
2b
37
28
15
1a
61
53
10
43
17
30
15
14
09
45
1c
29
2e
63
05
00
3e
12
46
55
5c
17
45
24
0f
40
17
29
15
3a
11
06
4b
24
1b
06
63
1c
31
63
1c
47
09
26
00
40
4f
3a
35
5f
0a
41
20
5e
42
06
59
5f
5a
05
2e
01
33
2c
0a
2a
22
31
3c
06
2e
17
04
51
38
57
58
07
39
1d
0b
54
19
52
41
54
2a
20
07
23
53
3a
52
23
26
17
1f
55
5b
59
4a
0d
38
1d
40
27
13
5d
09
58
4d
06
44
28
47
40
58
3f
42
0b
00
0d
36
52
2c
63
4d
23
0e
5d
27
51
14
44
4c
09
49
0c
09
37
2f
63
16
54
37
04
07
3b
3a
5a
28
22
2f
2a
5c
1e
16
19
39
23
02
30
48
1c
52
24
23
5d
25
02
08
1e
33
33
50
14
61
19
52
21
02
0e
60
21
3a
1d
23
5c
1f
63
29
45
51
0e
57
40
39
3b
24
3a
0a
47
37
50
18
3a
34
08
56
07
3a
35
4f
2e
0c
37
5d
0e
18
3a
36
3f
12
63
05
4f
59
25
59
26
2a
32
2a
2f
36
3e
2c
2e
27
54
52
3f
0f
13
19
04
17
43
3a
2c
06
50
16
31
3a
44
51
0f
22
39
3c
1d
3f
00
08
22
2e
08
35
54
60
18
52
4f
14
29
5d
39
20
31
1d
27
42
19
24
05
1b
4e
1c
52
5c
0b
23
3f
00
20
56
4a
3a
05
0a
39
20
30
3d
50
2a
36
21
11
54
35
63
0b
45
0a
3c
01
0b
4a
4e
61
10
3c
27
59
0d
4c
3f
54
27
5a
23
2c
22
45
0b
31
07
43
4c
38
2f
5f
1a
42
43
3f
04
33
5b
58
23
01
40
40
2b
33
25
01
21
1c
3e
33
53
5e
1e
2c
39
27
21
30
3a
60
3d
12
19
25
35
0f
0d
34
2a
09
2d
2c
38
58
3d
1c
18
32
30
30
36
46
1c
36
08
45
62
1a
56
10
4c
0f
57
22
20
4b
17
26
33
40
45
2e
07
0e
47
47
12
03
57
36
49
36
42
22
3b
3d
5a
50
47
19
5e
11
3a
19
53
3d
5e
22
55
08
5e
5c
30
60
56
39
58
4c
25
2e
13
43
0c
19
2a
5a
2f
00
58
3d
60
4d
17
31
5a
1e
36
45
07
2b
0c
07
35
5f
5a
59
36
33
18
0a
40
1c
2e
61
4b
13
60
43
2c
62
05
0d
2c
07
48
4b
0a
2a
00
32
14
09
3a
40
36
46
01
4d
0b
2f
35
5f
50
54
3b
58
3d
0a
02
39
20
32
48
2b
56
45
4d
09
09
20
58
08
57
5d
31
62
56
2e
1c
14
4a
23
07
2e
40
61
10
4b
52
3e
03
56
2a
41
33
10
3d
18
1c
23
08
17
5a
5c
2f
35
3c
34
14
45
46
1b
62
35
3f
08
3e
04
21
3a
38
01
41
59
43
11
07
45
61
07
2b
00
32
18
36
32
24
5a
02
37
2f
41
4d
42
4c
46
43
56
56
42
5a
54
5e
4b
32
51
1a
4d
05
39
24
3a
01
02
3c
54
03
3c
28
5a
08
5a
44
2f
30
4b
51
48
37
0b
21
0a
30
5c
45
12
3b
17
2d
4e
25
1a
4e
2c
17
37
0a
29
1f
3f
0a
11
0e
62
50
19
18
38
3f
46
26
29
02
2c
5e
12
48
32
37
3b
32
03
57
46
07
29
1b
4e
16
5a
32
5d
21
33
49
0b
41
48
5b
28
0b
60
22
53
40
39
51
17
1d
51
2a
49
01
17
03
00
14
24
5a
3c
1a
2a
1e
5b
3f
50
08
2c
02
1e
28
31
33
61
14
27
5e
60
22
28
11
3d
4c
22
45
4a
01
0e
45
33
23
3c
2e
3b
1b
5f
01
0d
3e
0d
1c
45
24
08
52
26
17
5d
22
5e
18
38
32
03
1e
1d
2e
1e
15
2f
07
02
04
08
28
59
1c
32
31
51
13
10
12
1d
1c
0c
56
18
0b
63
54
23
60
18
06
28
33
56
47
44
13
5c
12
50
5f
20
1f
4c
1e
5e
27
1c
4c
09
57
3a
0e
0e
3e
53
37
03
25
2c
28
14
1a
20
22
07
0a
2b
25
57
3d
3e
2a
46
60
1d
31
23
16
39
04
57
53
14
3f
15
3c
44
5f
62
3c
1b
0a
44
1f
5a
1a
20
26
45
26
1c
27
15
55
58
14
0a
5c
2a
3a
10
59
51
27
45
3d
22
21
08
43
4d
42
3b
24
4c
54
32
3e
1c
4e
2a
22
48
41
3f
52
26
1b
52
37
49
30
3d
23
5d
37
38
00
1d
33
2a
38
28
60
00
47
32
08
0e
3d
52
48
3c
1c
56
29
55
59
53
2c
56
5e
5e
11
50
29
06
40
47
02
50
06
4f
30
12
42
04
48
2f
43
1d
1f
30
2a
0b
45
1a
03
3b
1a
41
63
27
50
5e
5d
44
51
0d
53
17
57
39
24
43
61
00
43
60
2c
2a
50
26
47
0d
3a
00
2a
34
0c
0e
49
25
41
14
14
36
26
2d
54
16
57
0c
38
59
36
05
0e
52
52
5f
4a
32
1f
5f
3f
23
1f
1c
10
34
52
63
2f
1d
02
0d
43
12
3c
60
33
38
0a
04
1a
5f
21
1a
01
2d
19
19
55
35
13
56
46
5e
2d
3a
00
4e
1d
1a
02
56
55
38
25
2a
29
3c
63
3f
06
11
37
4f
53
0b
0e
2b
1a
62
38
0d
23
63
04
59
59
4c
39
35
4b
00
16
14
2e
33
48
2a
5c
02
1a
26
3a
27
38
36
23
21
2a
30
53
1a
00
3e
56
12
41
5e
63
22
45
60
0f
02
51
3c
58
4a
23
21
5a
28
44
2b
37
28
15
1a
61
53
10
43
17
30
15
14
09
45
1c
29
2e
63
05
00
3e
12
46
55
5c
17
45
24
0f
40
17
29
15
3a
11
06
4b
24
1b
06
63
1c
31
63
1c
47
09
26
00
40
4f
3a
35
5f
0a
41
20
5e
42
06
59
5f
5a
05
2e
01
33
2c
0a
2a
22
31
3c
06
2e
17
04
51
38
57
58
07
39
1d
0b
54
19
52
41
54
2a
20
07
23
53
3a
52
23
26
17
1f
55
5b
59
4a
0d
38
1d
40
27
13
5d
09
58
4d
06
44
28
47
40
58
3f
42
0b
00
0d
36
52
2c
63
4d
23
0e
5d
27
51
14
44
4c
09
49
0c
09
37
2f
63
16
54
37
04
07
3b
3a
5a
28
22
2f
2a
5c
1e
16
19
39
23
02
30
48
1c
52
24
23
5d
25
02
08
1e
33
33
50
14
61
19
52
21
02
0e
60
21
3a
1d
23
5c
1f
63
29
45
51
0e
57
40
39
3b
24
3a
0a
47
37
50
18
3a
34
08
56
07
3a
35
4f
2e
0c
37
5d
0e
18
3a
36
3f
12
63
05
4f
59
25
59
26
2a
32
2a
2f
36
3e
2c
2e
27
54
52
3f
0f
13
19
04
17
43
3a
2c
06
50
16
31
3a
44
51
0f
22
39
3c
1d
3f
00
08
22
2e
08
35
54
60
18
52
4f
14
29
5d
39
20
31
1d
27
42
19
24
05
1b
4e
1c
52
5c
0b
23
3f
00
20
56
4a
3a
05
0a
39
20
30
3d
50
2a
36
21
11
54
35
63
0b
45
0a
3c
01
0b
4a
4e
61
10
3c
27
59
0d
4c
3f
54
27
5a
23
2c
22
45
0b
31
07
43
4c
38
2f
5f
1a
42
43
3f
04
33
5b
58
23
01
40
40
2b
33
25
01
21
1c
3e
33
53
5e
1e
2c
39
27
21
30
3a
60
3d
12
19
25
35
0f
0d
34
2a
09
2d
2c
38
58
3d
1c
18
32
30
30
36
46
1c
36
08
45
62
1a
56
10
4c
0f
57
22
20
4b
17
26
33
40
45
2e
07
0e
47
47
12
03
57
36
49
36
42
22
3b
3d
5a
50
47
19
5e
11
3a
19
53
3d
5e
22
55
08
5e
5c
30
60
56
39
58
4c
25
2e
13
43
0c
19
2a
5a
2f
00
58
3d
60
4d
17
31
5a
1e
36
45
07
2b
0c
07
35
5f
5a
59
36
33
18
0a
40
1c
2e
61
4b
13
60
43
2c
62
05
0d
2c
07
48
4b
0a
2a
00
32
14
09
3a
40
36
46
01
4d
0b
2f
35
5f
50
54
3b
58
3d
0a
02
39
20
32
48
2b
56
45
4d
09
09
20
58
08
57
5d
31
62
56
2e
1c
14
4a
23
07
2e
40
61
10
4b
52
3e
03
56
2a
41
33
10
3d
18
1c
23
08
17
5a
5c
2f
35
3c
34
14
45
46
1b
62
35
3f
08
3e
04
21
3a
38
01
41
59
43
11
07
45
61
07
2b
00
32
18
36
32
24
5a
02
37
2f
41
4d
42
4c
46
43
56
56
42
5a
54
5e
4b
32
51
1a
4d
05
39
24
3a
01
02
3c
54
03
3c
28
5a
08
5a
44
2f
30
4b
51
48
37
0b
21
0a
30
5c
45
12
3b
17
2d
4e
25
1a
4e
2c
17
37
0a
29
1f
3f
0a
11
0e
62
50
19
18
38
3f
46
26
29
02
2c
5e
12
48
32
37
3b
32
03
57
46
07
29
1b
4e
16
5a
32
5d
21
33
49
0b
41
48
5b
28
0b
60
22
53
40
39
51
17
1d
51
2a
49
01
17
03
00
14
24
5a
3c
1a
2a
1e
5b
3f
50
08
2c
02
1e
28
31
33
61
14
27
5e
60
22
28
11
3d
4c
22
45
4a
01
0e
45
33
23
3c
2e
3b
1b
5f
01
0d
3e
0d
1c
45
24
08
52
26
17
5d
22
5e
18
38
32
03
1e
1d
2e
1e
15
2f
07
02
04
08
28
59
1c
32
31
51
13
10
12
1d
1c
0c
56
18
0b
63
54
23
60
18
06
28
33
56
47
44
13
5c
12
50
5f
20
1f
4c
1e
5e
27
1c
4c
09
57
3a
0e
0e
3e
53
37
03
25
2c
28
14
1a
20
22
07
0a
2b
25
57
3d
3e
2a
46
60
1d
31
23
16
39
04
57
53
14
3f
15
3c
44
5f
62
3c
1b
0a
44
1f
5a
1a
20
26
45
26
1c
27
15
55
58
14
0a
5c
2a
3a
10
59
51
27
45
3d
22
21
08
43
4d
42
3b
24
4c
54
32
3e
1c
4e
2a
22
48
41
3f
52
26
1b
52
37
49
30
3d
23
5d
37
38
00
1d
33
2a
38
28
60
00
47
32
08
0e
3d
52
48
3c
1c
56
29
55
59
53
2c
56
5e
5e
11
50
29
06
40
47
02
50
06
4f
30
12
42
04
48
2f
43
1d
1f
30
2a
0b
45
1a
03
3b
1a
41
63
27
50
5e
5d
44
51
0d
53
17
57
39
24
43
61
00
43
60
2c
2a
50
26
47
0d
3a
00
2a
34
0c
0e
49
25
41
14
14
36
26
2d
54
16
57
0c
38
59
36
05
0e
52
52
5f
4a
32
1f
5f
3f
23
1f
1c
10
34
52
63
2f
1d
02
0d
43
12
3c
60
33
38
0a
04
1a
5f
21
1a
01
2d
19
19
55
35
13
56
46
5e
2d
3a
00
4e
1d
1a
02
56
55
38
25
2a
29
3c
63
3f
06
11
37
4f
53
0b
0e
2b
1a
62
38
0d
23
63
04
59
59
4c
39
35
4b
00
16
14
2e
33
48
2a
5c
02
1a
26
3a
27
38
36
23
21
2a
30
53
1a
00
3e
56
12
41
5e
63
22
45
60
0f
02
51
3c
58
4a
23
21
5a
28
44
2b
37
28
15
1a
61
53
10
43
17
30
15
14
09
45
1c
29
2e
63
05
00
3e
12
46
55
5c
17
45
24
0f
40
17
29
15
3a
11
06
4b
24
1b
06
63
1c
31
63
1c
47
09
26
00
40
4f
3a
35
5f
0a
41
20
5e
42
06
59
5f
5a
05
2e
01
33
2c
0a
2a
22
31
3c
06
2e
17
04
51
38
57
58
07
39
1d
0b
54
19
52
41
54
2a
20
07
23
53
3a
52
23
26
17
1f
55
5b
59
4a
0d
38
1d
40
27
13
5d
09
58
4d
06
44
28
47
40
58
3f
42
0b
00
0d
36
52
2c
63
4d
23
0e
5d
27
51
14
44
4c
09
49
0c
09
37
2f
63
16
54
37
04
07
3b
3a
5a
28
22
2f
2a
5c
1e
16
19
39
23
02
30
48
1c
52
24
23
5d
25
02
08
1e
33
33
50
14
61
19
52
21
02
0e
60
21
3a
1d
23
5c
1f
63
29
45
51
0e
57
40
39
3b
24
3a
0a
47
37
50
18
3a
34
08
56
07
3a
35
4f
2e
0c
37
5d
0e
18
3a
36
3f
12
63
05
4f
59
25
59
26
2a
32
2a
2f
36
3e
2c
2e
27
54
52
3f
0f
13
19
04
17
43
3a
2c
06
50
16
31
3a
44
51
0f
22
39
3c
1d
3f
00
08
22
2e
08
35
54
60
18
52
4f
14
29
5d
39
20
31
1d
27
42
19
24
05
1b
4e
1c
52
5c
0b
23
3f
00
20
56
4a
3a
05
0a
39
20
30
3d
50
2a
36
21
11
54
35
63
0b
45
0a
3c
01
0b
4a
4e
61
10
3c
27
59
0d
4c
3f
54
27
5a
23
2c
22
45
0b
31
07
43
4c
38
2f
5f
1a
42
43
3f
04
33
5b
58
23
01
40
40
2b
33
25
01
21
1c
3e
33
53
5e
1e
2c
39
27
21
30
3a
60
3d
12
19
25
35
0f
0d
34
2a
09
2d
2c
38
58
3d
1c
18
32
30
30
36
46
1c
36
08
45
62
1a
56
10
4c
0f
57
22
20
4b
17
26
33
40
45
2e
07
0e
47
47
12
03
57
36
49
36
42
22
3b
3d
5a
50
47
19
5e
11
3a
19
53
3d
5e
22
55
08
5e
5c
30
60
56
39
58
4c
25
2e
13
43
0c
19
2a
5a
2f
00
58
3d
60
4d
17
31
5a
1e
36
45
07
2b
0c
07
35
5f
5a
59
36
33
18
0a
40
1c
2e
61
4b
13
60
43
2c
62
05
0d
2c
07
48
4b
0a
2a
00
32
14
09
3a
40
36
46
01
4d
0b
2f
35
5f
50
54
3b
58
3d
0a
02
39
20
32
48
2b
56
45
4d
09
09
20
58
08
57
5d
31
62
56
2e
1c
14
4a
23
07
2e
40
61
10
4b
52
3e
03
56
2a
41
33
10
3d
18
1c
23
08
17
5a
5c
2f
35
3c
34
14
45
46
1b
62
35
3f
08
3e
04
21
3a
38
01
41
59
43
11
07
45
61
07
2b
00
32
18
36
32
24
5a
02
37
2f
41
4d
42
4c
46
43
56
56
42
5a
54
5e
4b
32
51
1a
4d
05
39
24
3a
01
02
3c
54
03
3c
28
5a
08
5a
44
2f
30
4b
51
48
37
0b
21
0a
30
5c
45
12
3b
17
2d
4e
25
1a
4e
2c
17
37
0a
29
1f
3f
0a
11
0e
62
50
19
18
38
3f
46
26
29
02
2c
5e
12
48
32
37
3b
32
03
57
46
07
29
1b
4e
16
5a
32
5d
21
33
49
0b
41
48
5b
28
0b
60
22
53
40
39
51
17
1d
51
2a
49
01
17
03
00
14
24
5a
3c
1a
2a
1e
5b
3f
50
08
2c
02
1e
28
31
33
61
14
27
5e
60
22
28
11
3d
4c
22
45
4a
01
0e
45
33
23
3c
2e
3b
1b
5f
01
0d
3e
0d
1c
45
24
08
52
26
17
5d
22
5e
18
38
32
03
1e
1d
2e
1e
15
2f
07
02
04
08
28
59
1c
32
31
51
13
10
12
1d
1c
0c
56
18
0b
63
54
23
60
18
06
28
33
56
47
44
13
5c
12
50
5f
20
1f
4c
1e
5e
27
1c
4c
09
57
3a
0e
0e
3e
53
37
03
25
2c
28
14
1a
20
22
07
0a
2b
25
57
3d
3e
2a
46
60
1d
31
23
16
39
04
57
53
14
3f
15
3c
44
5f
62
3c
1b
0a
44
1f
5a
1a
20
26
45
26
1c
27
15
55
58
14
0a
5c
2a
3a
10
59
51
27
45
3d
22
21
08
43
4d
42
3b
24
4c
54
32
3e
1c
4e
2a
22
48
41
3f
52
26
1b
52
37
49
30
3d
23
5d
37
38
00
1d
33
2a
38
28
60
00
47
32
08
0e
3d
52
48
3c
1c
56
29
55
59
53
2c
56
5e
5e
11
50
29
06
40
47
02
50
06
4f
30
12
42
04
48
2f
43
1d
1f
30
2a
0b
45
1a
03
3b
1a
41
63
27
50
5e
5d
44
51
0d
53
17
57
39
24
43
61
00
43
60
2c
2a
50
26
47
0d
3a
00
2a
34
0c
0e
49
25
41
14
14
36
26
2d
54
16
57
0c
38
59
36
05
0e
52
52
5f
4a
32
1f
5f
3f
23
1f
1c
10
34
52
63
2f
1d
02
0d
43
12
3c
60
33
38
0a
04
1a
5f
21
1a
01
2d
19
19
55
35
13
56
46
5e
2d
3a
00
4e
1d
1a
02
56
55
38
25
2a
29
3c
63
3f
06
11
37
4f
53
0b
0e
2b
1a
62
38
0d
23
63
04
59
59
4c
39
35
4b
00
16
14
2e
33
48
2a
5c
02
1a
26
3a
27
38
36
23
21
2a
30
53
1a
00
3e
56
12
41
5e
63
22
45
60
0f
02
51
3c
58
4a
23
21
5a
28
44
2b
37
28
15
1a
61
53
10
43
17
30
15
14
09
45
1c
29
2e
63
05
00
3e
12
46
55
5c
17
45
24
0f
40
17
29
15
3a
11
06
4b
24
1b
06
63
1c
31
63
1c
47
09
26
00
40
4f
3a
35
5f
0a
41
20
5e
42
06
59
5f
5a
05
2e
01
33
2c
0a
2a
22
31
3c
06
2e
17
04
51
38
57
58
07
39
1d
0b
54
19
52
41
54
2a
20
07
23
53
3a
52
23
26
17
1f
55
5b
59
4a
0d
38
1d
40
27
13
5d
09
58
4d
06
44
28
47
40
58
3f
42
0b
00
0d
36
52
2c
63
4d
23
0e
5d
27
51
14
44
4c
09
49
0c
09
37
2f
63
16
54
37
04
07
3b
3a
5a
28
22
2f
2a
5c
1e
16
19
39
23
02
30
48
1c
52
24
23
5d
25
02
08
1e
33
33
50
14
61
19
52
21
02
0e
60
21
3a
1d
23
5c
1f
63
29
45
51
0e
57
40
39
3b
24
3a
0a
47
37
50
18
3a
34
08
56
07
3a
35
4f
2e
0c
37
5d
0e
18
3a
36
3f
12
63
05
4f
59
25
59
26
2a
32
2a
2f
36
3e
2c
2e
27
54
52
3f
0f
13
19
04
17
43
3a
2c
06
50
16
31
3a
44
51
0f
22
39
3c
1d
3f
00
08
22
2e
08
35
54
60
18
52
4f
14
29
5d
39
20
31
1d
27
42
19
24
05
1b
4e
1c
52
5c
0b
23
3f
00
20
56
4a
3a
05
0a
39
20
30
3d
50
2a
36
21
11
54
35
63
0b
45
0a
3c
01
0b
4a
4e
61
10
3c
27
59
0d
4c
3f
54
27
5a
23
2c
22
45
0b
31
07
43
4c
38
2f
5f
1a
42
43
3f
04
33
5b
58
23
01
40
40
2b
33
25
01
21
1c
3e
33
53
5e
1e
2c
39
27
21
30
3a
60
3d
12
19
25
35
0f
0d
34
2a
09
2d
2c
38
58
3d
1c
18
32
30
30
36
46
1c
36
08
45
62
1a
56
10
4c
0f
57
22
20
4b
17
26
33
40
45
2e
07
0e
47
47
12
03
57
36
49
36
42
22
3b
3d
5a
50
47
19
5e
11
3a
19
53
3d
5e
22
55
08
5e
5c
30
60
56
39
58
4c
25
2e
13
43
0c
19
2a
5a
2f
00
58
3d
60
4d
17
31
5a
1e
36
45
07
2b
0c
07
35
5f
5a
59
36
33
18
0a
40
1c
2e
61
4b
13
60
43
2c
62
05
0d
2c
07
48
4b
0a
2a
00
32
14
09
3a
40
36
46
01
4d
0b
2f
35
5f
50
54
3b
58
3d
0a
02
39
20
32
48
2b
56
45
4d
09
09
20
58
08
57
5d
31
62
56
2e
1c
14
4a
23
07
2e
40
61
10
4b
52
3e
03
56
2a
41
33
10
3d
18
1c
23
08
17
5a
5c
2f
35
3c
34
14
45
46
1b
62
35
3f
08
3e
04
21
3a
38
01
41
59
43
11
07
45
61
07
2b
00
32
18
36
32
24
5a
02
37
2f
41
4d
42
4c
46
43
56
56
42
5a
54
5e
4b
32
51
1a
4d
05
39
24
3a
01
02
3c
54
03
3c
28
5a
08
5a
44
2f
30
4b
51
48
37
0b
21
0a
30
5c
45
12
3b
17
2d
4e
25
1a
4e
2c
17
37
0a
29
1f
3f
0a
11
0e
62
50
19
18
38
3f
46
26
29
02
2c
5e
12
48
32
37
3b
32
03
57
46
07
29
1b
4e
16
5a
32
5d
21
33
49
0b
41
48
5b
28
0b
60
22
53
40
39
51
17
1d
51
2a
49
01
17
03
00
14
24
5a
3c
1a
2a
1e
5b
3f
50
08
2c
02
1e
28
31
33
61
14
27
5e
60
22
28
11
3d
4c
22
45
4a
01
0e
45
33
23
3c
2e
3b
1b
5f
01
0d
3e
0d
1c
45
24
08
52
26
17
5d
22
5e
18
38
32
03
1e
1d
2e
1e
15
2f
07
02
04
08
28
59
1c
32
31
51
13
10
12
1d
1c
0c
56
18
0b
63
54
23
60
18
06
28
33
56
47
44
13
5c
12
50
5f
20
1f
4c
1e
5e
27
1c
4c
09
57
3a
0e
0e
3e
53
37
03
25
2c
28
14
1a
20
22
07
0a
2b
25
57
3d
3e
2a
46
60
1d
31
23
16
39
04
57
53
14
3f
15
3c
44
5f
62
3c
1b
0a
44
1f
5a
1a
20
26
45
26
1c
27
15
55
58
14
0a
5c
2a
3a
10
59
51
27
45
3d
22
21
08
43
4d
42
3b
24
4c
54
32
3e
1c
4e
2a
22
48
41
3f
52
26
1b
52
37
49
30
3d
23
5d
37
38
00
1d
33
2a
38
28
60
00
47
32
08
0e
3d
52
48
3c
1c
56
29
55
59
53
2c
56
5e
5e
11
50
29
06
40
47
02
50
06
4f
30
12
42
04
48
2f
43
1d
1f
30
2a
0b
45
1a
03
3b
1a
41
63
27
50
5e
5d
44
51
0d
53
17
57
39
24
43
61
00
43
60
2c
2a
50
26
47
0d
3a
00
2a
34
0c
0e
49
25
41
14
14
36
26
2d
54
16
57
0c
38
59
36
05
0e
52
52
5f
4a
32
1f
5f
3f
23
1f
1c
10
34
52
63
2f
1d
02
0d
43
12
3c
60
33
38
0a
04
1a
5f
21
1a
01
2d
19
19
55
35
13
56
46
5e
2d
3a
00
4e
1d
1a
02
56
55
38
25
2a
29
3c
63
3f
06
11
37
4f
53
0b
0e
2b
1a
62
38
0d
23
63
04
59
59
4c
39
35
4b
00
16
14
2e
33
48
2a
5c
02
1a
26
3a
27
38
36
23
21
2a
30
53
