57
55
45
1e
5c
34
21
48
0a
0f
5e
2d
00
52
11
28
1f
46
22
4b
4a
13
2f
55
22
5e
52
56
4c
63
1b
04
37
07
51
1e
1a
50
43
0c
4a
31
63
33
00
4e
07
12
41
04
12
2b
55
55
38
0b
56
07
0e
56
25
16
38
4f
5b
47
2a
1c
08
62
27
2e
39
36
54
5e
1c
5c
49
28
10
06
5a
4c
39
1d
4b
42
23
3b
3d
0f
34
56
37
1b
32
18
17
3b
06
62
1a
29
0a
57
39
0e
19
40
29
0b
02
40
43
3c
0f
2d
02
4d
54
0b
5b
09
4b
54
48
41
34
0d
39
43
3a
3b
2c
2a
16
23
03
62
47
4c
0f
00
2e
4c
4b
04
58
48
62
0a
3b
36
3c
1f
1e
4c
1f
3f
61
12
17
55
5a
4a
2f
31
1c
3c
20
0a
58
0f
19
0f
2a
13
14
54
5d
13
55
49
4f
12
53
43
21
08
22
1e
08
09
4b
01
50
3d
1a
3c
4f
09
4f
40
45
0e
5e
5a
4f
41
2f
3c
4e
49
14
39
52
33
16
04
41
44
5e
53
0c
00
18
5b
4a
60
00
08
2f
4a
0c
41
2b
3b
30
20
11
08
0c
2b
38
0d
34
38
57
10
15
1e
1b
15
0f
14
47
20
40
2c
3e
18
45
59
40
08
5f
2a
0f
54
41
5c
5d
27
16
37
0f
5b
60
50
33
5c
4a
13
1c
27
0b
22
40
07
24
4f
62
20
0b
02
4c
25
49
05
4c
24
5b
15
2b
06
19
5d
5a
58
2f
43
1a
14
18
36
38
0f
1b
5a
10
44
00
06
08
63
19
56
14
31
5d
1c
10
14
46
2c
41
28
1e
1a
27
38
0c
0b
39
05
5c
1a
4e
3e
46
4f
43
34
52
3b
3c
2e
46
46
34
0e
60
1e
1d
42
3d
45
01
07
53
3e
05
06
20
09
48
50
5b
01
2e
34
47
36
2b
56
33
30
2c
23
3a
11
0f
31
12
3d
36
29
0f
35
26
11
33
53
34
3d
34
43
0b
46
50
11
40
2f
46
1b
11
36
02
16
0f
36
29
4e
4d
16
5f
29
15
42
14
52
26
03
47
35
0a
0d
20
57
57
1b
1c
3c
5d
30
2a
16
04
5c
39
0e
05
59
01
5c
44
51
34
0e
51
2f
24
05
56
4a
4e
5b
0f
4f
23
24
0c
27
32
5e
26
26
63
17
63
5e
61
43
19
54
03
26
4b
35
20
0e
2b
53
25
21
61
29
2a
4a
19
61
0c
00
02
2c
0e
2d
4f
04
1f
24
13
39
4b
22
17
2b
27
58
4c
25
63
16
50
1c
5a
21
16
1a
0d
2d
46
34
22
2e
29
55
14
16
0d
0a
37
36
23
35
2c
39
3a
1e
03
63
10
17
49
1d
55
50
54
59
4e
55
5e
24
10
31
58
20
18
0d
3d
09
2e
61
63
19
41
3a
20
51
07
48
41
1f
56
4f
5d
20
4c
5c
09
08
4c
60
16
54
14
28
43
06
13
3c
5a
2f
04
33
08
1c
04
4a
4e
18
0e
62
53
21
3a
19
21
3f
4d
29
2b
2d
23
63
1b
32
61
0a
23
07
58
44
16
41
3d
41
3e
0c
59
04
4c
26
43
3f
2d
37
54
14
48
2d
55
56
39
51
0d
1a
23
20
5a
50
27
4a
34
3f
13
26
31
1d
47
3f
0f
0e
60
39
2f
23
1f
63
63
03
59
00
54
3d
0f
0c
63
22
17
62
16
06
31
49
09
5b
49
2d
04
29
39
20
1d
07
49
33
0d
4b
4c
4b
42
02
48
16
2b
52
06
0f
5d
54
25
3a
0b
0d
55
1d
0f
3a
33
3a
5c
3a
1a
02
13
3d
23
1e
1b
15
0c
2a
1f
3f
35
17
15
4f
4d
4f
61
52
41
18
37
4d
12
26
29
47
3d
0e
02
5a
5d
2b
1a
21
3d
04
22
03
46
0b
2d
3f
4d
60
21
29
27
35
56
31
57
48
34
09
24
32
18
41
2e
09
07
25
3f
2f
0e
1e
5a
43
5b
1a
45
10
5b
0f
4d
32
35
28
62
21
28
57
00
1f
41
15
63
09
24
4d
3b
29
45
09
1b
3c
25
06
1a
02
4f
4d
0b
0f
36
17
09
18
54
24
54
5a
33
33
0f
1e
1d
1b
62
53
02
3b
3b
56
2f
5f
4d
1e
34
5a
63
51
45
31
11
17
08
1c
0a
37
18
27
56
52
38
5e
36
4d
2c
17
01
34
33
3f
3c
1b
02
62
09
4d
42
15
19
3e
2c
1a
0e
5f
59
1a
4b
2b
18
54
14
61
3d
4d
4a
05
37
29
34
61
13
1b
28
2c
40
0d
29
0a
5f
39
43
32
32
47
63
45
63
5c
41
3f
05
07
49
3e
04
37
22
36
1a
21
4c
4d
19
29
5c
52
30
11
61
06
4b
27
26
01
19
0e
1f
32
08
17
55
38
29
52
0e
55
29
06
4a
42
49
05
44
51
1d
05
59
16
57
38
3b
2a
08
60
2c
51
35
41
0e
52
46
04
38
0a
3c
10
04
59
20
2c
32
25
3d
41
48
53
45
1c
2d
51
2c
32
46
4d
23
48
26
54
54
5f
4e
23
1c
06
04
1a
4a
5c
10
2a
01
1c
17
55
17
01
49
03
3b
1d
1e
56
16
62
1c
1d
29
5a
2d
10
5c
46
13
03
63
01
59
15
63
46
03
2c
3e
13
45
06
59
58
09
29
5a
33
3e
29
49
11
56
63
1e
1c
17
48
45
54
0d
3b
57
1b
00
3c
61
26
0b
5f
1f
33
29
00
57
06
0b
4b
56
40
57
53
02
63
4e
0f
62
03
28
55
3d
03
3c
2f
43
00
1e
46
63
08
25
25
41
43
55
1b
47
62
4a
26
62
05
3c
31
41
62
26
31
59
10
5a
0c
0e
40
33
40
15
3f
0d
57
3d
33
58
56
35
27
46
13
37
49
23
1d
24
30
44
32
33
38
58
05
4c
4f
49
53
34
08
0c
29
38
50
5b
3b
59
1f
11
13
4a
59
4f
4f
32
2c
14
3a
18
3f
12
41
5e
23
55
22
4d
38
0f
1b
00
23
25
4d
62
37
2a
2d
2a
4f
4f
59
13
33
49
48
27
0a
31
25
12
2b
22
3c
4b
0d
31
29
21
4c
09
48
27
0a
3e
39
05
60
45
50
3e
47
49
59
07
03
2f
2e
41
09
37
47
39
19
03
47
30
4d
3d
39
34
2c
5c
63
0a
2a
63
54
33
00
3e
13
13
4f
4c
4d
38
06
03
13
30
36
37
33
36
45
46
4a
31
2e
03
5b
1e
24
59
4e
5a
2c
1e
2d
0e
34
47
0f
63
4a
06
3d
56
45
13
4c
41
01
49
1f
35
2c
2e
04
46
05
41
1e
4a
38
28
27
09
42
47
3e
3e
45
13
21
4a
54
3f
55
1d
4e
25
26
2c
08
34
3a
4d
47
5b
34
38
06
59
10
61
3c
09
5d
14
3e
04
62
55
2f
02
29
36
5b
39
06
3c
27
0a
21
35
0e
1f
26
3e
55
20
44
4c
29
1a
40
17
1b
32
1c
5d
21
12
07
46
02
1b
2e
2c
06
3e
59
2b
2b
3c
59
1c
4e
60
62
51
4c
60
4d
52
3a
12
17
20
25
09
0c
10
39
0a
31
21
06
4e
0f
40
60
5a
3b
3c
00
0b
1c
3a
15
1d
2b
1b
07
3b
2c
37
01
37
01
40
27
07
16
0d
58
41
5c
2f
4c
24
36
1e
2c
38
17
03
14
3e
10
3c
4f
09
3b
08
61
0d
26
29
15
3d
40
5c
17
0b
04
02
14
3f
0a
46
4d
00
0b
62
3d
4b
24
3e
59
3a
40
3d
16
1b
1f
33
1b
2b
31
29
46
25
26
28
37
4e
42
1c
45
34
58
51
0e
5b
13
0f
2b
18
1d
21
35
35
3d
4a
05
01
08
48
5c
4f
57
23
03
10
13
50
45
3b
06
4a
3c
0e
62
34
5d
55
27
31
35
3a
4b
52
42
1e
09
4f
60
07
53
2a
5d
17
5b
62
21
42
35
5f
36
43
1a
02
4a
09
2c
13
54
23
12
46
36
17
26
17
3d
0f
1a
24
18
16
07
3d
0a
19
53
40
30
15
1d
10
3b
05
04
24
1c
0b
31
26
59
20
36
59
35
53
25
48
22
25
3c
0e
00
09
34
59
29
06
4f
2e
59
44
0a
51
55
34
5f
26
0d
2f
1b
36
05
06
00
5e
1b
3e
4e
54
44
28
16
51
57
01
57
2c
3c
27
26
57
01
44
0c
56
4c
4a
43
10
4c
06
3c
24
2d
33
4b
62
13
27
00
52
4b
4a
62
33
50
0a
27
4d
3d
0e
4b
21
35
4b
52
49
43
20
18
2f
2b
0f
4c
38
1d
03
29
22
1f
17
20
61
46
13
60
41
22
18
16
10
1c
3f
32
3b
27
22
37
2c
03
23
09
25
3c
53
05
28
63
38
63
5a
2a
06
3d
4a
14
53
40
20
12
45
48
11
4d
17
07
14
1d
15
1f
3a
10
15
55
16
36
15
15
04
4b
5d
0b
5f
0a
1b
43
5e
46
08
45
19
51
5a
1d
38
53
5c
04
2d
14
17
13
49
27
47
32
15
3d
4f
1d
60
48
21
2a
2c
09
0d
05
4b
53
0b
30
61
2b
4e
5d
43
3f
57
0b
48
34
44
17
23
03
40
20
62
5e
19
41
09
41
4c
22
11
60
39
3f
2e
26
32
2c
54
1b
3d
5d
5c
59
1b
3e
55
25
19
1f
27
1b
0b
17
07
48
11
33
3d
60
0d
2f
21
5a
1e
03
15
06
62
50
1f
43
1f
5c
3f
61
5b
61
57
15
00
46
53
06
63
0e
49
1f
06
24
1c
62
55
43
47
25
59
18
37
0c
57
50
2b
2d
45
17
5f
36
2a
43
5c
20
2b
26
3d
4f
51
38
4d
32
1f
48
38
49
27
30
39
52
56
56
57
60
4d
10
62
3c
59
36
21
50
37
2b
0f
29
1d
31
22
4b
06
54
57
2f
26
49
1b
2d
10
2a
27
61
2b
5f
63
2b
20
56
5a
17
3b
46
44
4b
0c
07
48
08
02
4e
63
5d
2b
29
10
36
0b
24
1e
4c
2c
36
54
62
55
43
60
29
26
0c
5f
02
31
4d
4e
2d
20
0e
5f
11
51
4a
5b
18
2c
56
05
06
4a
48
60
49
01
50
36
1c
07
2c
24
43
28
29
4a
42
0d
16
5c
42
03
2e
5f
0a
2a
55
28
11
25
42
54
03
58
4c
45
2b
4a
10
05
10
36
1b
58
58
38
18
2b
60
00
40
28
1a
51
2d
2a
57
18
46
27
02
4c
52
63
4d
62
5b
37
1f
24
62
12
0d
14
4b
45
42
35
14
5f
03
0b
32
23
00
00
35
0d
14
1d
5a
5c
5d
30
57
61
3b
5a
20
3b
5a
25
48
3f
42
0e
3c
54
05
03
51
41
5d
41
4c
23
02
31
62
15
0f
0a
43
1b
49
63
5c
12
40
44
05
42
45
38
27
25
42
07
5f
42
50
60
54
2c
10
5a
3e
56
2e
36
17
40
3d
12
08
44
55
0a
0c
02
00
1b
28
62
51
0f
3e
2a
55
16
5d
12
48
54
48
18
3f
0c
4a
2c
1b
59
26
40
0b
53
13
20
0d
0b
09
4c
4b
53
48
36
48
3e
12
24
2e
25
57
1b
2f
1a
38
17
09
1c
4d
22
2b
60
46
29
55
09
2d
4e
3a
58
01
44
11
1f
36
0c
1b
4c
35
0c
55
62
49
3d
10
43
51
55
62
57
31
4d
3f
02
29
01
34
42
20
48
4d
1d
1c
5a
21
24
4d
02
39
3c
51
1f
4b
02
47
13
14
37
09
06
5c
27
08
01
63
59
20
4a
5b
38
35
63
59
2e
39
51
55
41
52
54
07
43
0a
62
17
0f
0f
1b
5f
1e
08
50
2f
2b
10
36
0a
4e
05
55
5d
14
41
19
14
51
39
13
4c
49
4a
26
03
1f
17
31
03
29
11
04
2a
29
17
12
0e
31
39
46
20
50
13
23
49
58
57
14
08
19
27
4a
4a
60
60
3b
1c
43
5e
36
38
51
3d
27
39
3c
42
53
08
3e
2a
59
1e
25
2b
56
46
38
3b
2c
27
5a
4f
30
34
4a
59
52
0b
54
14
21
28
50
61
14
01
51
14
35
37
09
58
12
5d
3c
34
55
5c
31
59
41
61
13
47
34
1c
0b
47
49
47
17
0a
10
18
63
46
3a
32
4c
0a
1f
57
21
38
0a
08
13
1a
21
46
30
48
32
24
56
21
4b
13
59
55
1c
08
40
0d
1f
40
55
51
17
57
55
62
06
1b
23
56
57
33
63
12
10
24
34
60
31
2c
0c
08
17
2f
5e
3e
63
5e
21
43
1e
55
3f
4f
46
4a
53
2d
15
1d
07
48
4b
28
27
06
4d
37
25
47
5b
17
34
44
14
40
45
17
3d
23
14
28
5b
33
4d
37
17
52
12
5f
62
27
46
3b
1a
5b
34
12
5e
51
49
40
4c
13
32
1b
0a
15
56
24
40
26
36
0a
13
4f
4b
10
17
1c
13
21
01
06
15
11
60
1c
1b
44
07
36
54
48
13
1c
2b
14
56
40
59
52
5c
10
02
00
47
26
18
5d
51
11
47
43
51
3c
01
4a
4d
38
1a
00
5e
02
2d
17
09
41
07
5b
4d
3c
11
36
10
2b
06
0b
2d
04
22
62
58
5c
3b
41
35
4c
48
15
47
1e
20
44
22
12
42
3a
5c
36
3c
61
52
20
12
05
3e
03
49
61
15
5c
07
1e
05
07
5e
57
5b
41
5c
35
44
11
02
29
09
09
17
2f
33
36
44
2a
13
3c
5f
57
1d
32
1c
5b
0b
04
5a
23
2b
22
35
0e
2e
00
01
4b
32
51
12
3e
55
08
31
45
3a
3f
1f
04
3f
54
1f
42
41
32
50
03
3a
1d
18
4b
0a
0e
1e
4a
62
3d
5c
0f
0b
48
12
16
01
5f
31
02
3f
0d
4b
0d
1a
43
1c
5a
27
63
0c
5c
2e
0d
5e
41
00
5f
21
1a
0e
0e
44
35
41
50
61
0b
2e
5b
4c
10
14
3d
36
1b
27
48
41
20
60
4e
2e
32
14
28
5e
0e
2a
61
08
21
16
19
41
12
03
0c
14
4b
04
0e
59
25
60
33
17
12
4c
28
58
1f
04
3c
06
3c
1b
30
61
01
57
00
30
0f
29
58
62
61
30
38
3a
4b
38
37
1c
22
40
35
2f
39
5d
61
37
5e
06
0d
15
3e
14
32
31
18
08
31
39
02
2e
0c
60
34
4d
45
0f
61
13
40
15
00
5c
5d
08
5a
39
38
2b
22
19
0a
1f
61
1a
05
61
10
54
5e
1c
29
02
17
1b
50
21
3b
4d
0b
10
1a
1c
00
2c
3e
12
2f
55
2e
1b
47
39
04
22
19
52
0e
4d
2f
29
14
22
4e
12
0d
31
4b
45
24
34
33
32
1d
62
54
24
07
31
36
14
33
51
59
57
21
28
25
0e
5a
16
05
3f
3c
2d
54
3f
4f
49
32
40
42
57
4f
08
3d
24
4e
1b
07
00
5a
26
19
5c
02
2b
20
21
34
5d
46
52
07
56
34
1b
4c
1e
14
4f
49
34
40
4d
61
22
0c
39
02
5b
4a
5d
15
2e
18
2f
32
58
4c
00
4b
58
39
4d
2e
5d
01
02
27
4d
31
5a
42
19
2a
29
42
33
12
0c
5a
19
3f
52
26
50
06
16
31
23
43
52
4f
45
04
09
36
2f
53
00
1b
59
16
1c
4c
2a
0a
38
0b
0f
11
12
31
10
24
1b
39
0b
38
56
05
12
2a
44
21
0b
56
53
29
17
10
42
22
18
34
5b
2b
5e
3b
4c
05
2e
0b
62
05
36
61
35
1e
31
2c
49
5f
04
02
34
02
41
32
07
49
1a
3b
1d
4b
04
37
16
3c
39
4a
3e
4a
4c
45
00
28
26
44
4d
2a
4b
63
36
54
49
10
3a
31
26
3a
2a
46
0d
26
63
58
25
35
48
3f
46
53
40
3c
29
06
52
44
43
3a
17
38
0c
30
13
22
1f
24
2e
48
5e
1c
5d
1f
35
11
04
11
41
4b
03
30
0b
31
49
06
4d
42
25
55
2b
50
19
3c
37
1c
09
43
4d
22
49
37
00
3e
5c
03
26
41
3b
2e
5e
14
0d
47
36
26
4e
06
34
46
3d
27
2e
0a
45
28
52
52
40
59
48
2a
5f
18
41
09
10
2d
06
47
17
29
06
57
1e
1e
1e
4d
37
5f
56
17
5c
06
5f
08
54
35
5f
42
54
4d
2c
5b
18
52
0e
10
28
47
20
1f
18
1b
31
3c
05
5d
33
51
4c
11
62
44
58
59
5f
0a
47
0c
47
4f
23
1d
38
27
00
04
44
0d
3d
13
5d
38
4e
41
57
0e
5e
2b
05
2e
63
49
0c
0c
2c
2f
06
40
44
5d
4e
0e
58
53
3c
57
08
48
00
04
48
02
61
34
25
1b
12
4d
3e
4f
11
16
03
45
1a
1b
47
54
2d
1a
0e
40
04
1c
5f
15
32
32
2a
1c
4e
0d
0c
14
04
5b
37
3c
13
02
21
15
35
4b
01
53
28
42
03
3e
35
22
31
18
25
52
61
5a
09
33
49
31
45
4c
0b
01
16
3d
2d
0b
5f
2b
01
04
2e
1a
05
0f
02
44
10
4f
10
2d
44
0b
28
46
43
56
30
18
01
03
5c
46
52
0c
27
34
18
20
4a
5b
12
17
0f
48
1a
3c
2a
08
18
33
07
40
3b
21
08
1d
38
17
01
22
23
2b
5e
3c
2f
53
28
52
3d
30
0c
45
18
0d
38
3b
09
32
47
38
56
4c
25
63
49
31
14
31
3e
4c
08
47
1b
50
4f
41
08
45
36
2d
3a
4b
5e
49
33
37
60
1e
23
4c
5f
5f
2d
12
13
0c
43
0e
55
46
45
52
01
38
0a
30
33
37
13
28
1b
4c
2d
40
2f
42
62
30
16
08
30
19
10
43
41
05
0d
5b
3a
4a
41
25
06
10
41
01
11
3a
47
37
30
45
5a
10
03
37
35
09
47
46
0a
58
50
22
5f
1d
03
08
62
57
2d
03
61
44
1a
3b
09
06
2d
04
23
31
40
3b
0e
4f
16
0b
30
30
17
09
07
44
0d
2a
45
1e
36
01
62
1b
55
62
1b
3c
07
22
1c
48
1d
32
02
53
03
5e
15
16
25
31
52
2c
23
3e
45
10
0c
47
63
10
42
5f
3d
1c
52
5f
19
11
39
5e
22
16
11
55
5a
23
20
48
25
39
46
3e
1b
50
08
0d
02
19
32
5c
0d
23
40
3a
00
56
43
1b
42
4b
5c
14
34
5e
40
11
1d
1d
4b
5d
58
33
17
06
1a
43
1b
1e
3d
5b
30
2b
48
17
24
0d
5e
5e
51
48
3d
3c
37
16
34
03
11
4c
4e
36
29
42
19
32
14
26
0b
1b
0c
0f
1e
1e
5b
3c
24
21
1b
60
2a
31
3e
35
4c
4b
14
3a
05
40
13
29
31
2e
59
3e
0c
25
04
28
0c
4d
63
45
5d
12
3e
2a
40
33
38
0a
5b
05
5b
03
52
5a
19
4b
3c
57
45
18
27
19
56
31
1e
54
5f
40
1a
14
5b
56
3c
3c
3e
33
25
30
34
35
5f
1a
5d
4f
2d
3f
33
0e
5c
4a
4a
40
03
5f
60
10
5d
3b
1c
26
4a
4f
04
43
06
4e
1f
3d
49
4f
4d
11
51
57
1d
07
13
22
4a
4d
0c
3a
26
26
25
44
37
25
11
61
25
24
53
40
0d
60
16
04
56
0b
48
29
00
4f
1f
24
05
0f
34
13
3f
1a
4b
31
26
2f
2a
5a
1a
2c
1c
5a
3f
50
3d
1a
07
24
1b
61
23
45
27
0d
0d
4b
3d
60
20
16
4a
27
0a
02
58
2d
17
1b
3b
59
37
1b
59
1e
37
40
45
12
12
09
3f
29
24
16
52
2b
02
4c
2a
37
00
3f
49
12
48
24
0c
3c
0b
5e
04
41
17
11
00
0f
3d
19
55
55
0d
31
2e
18
60
32
29
13
43
3c
54
46
3e
46
38
4c
47
02
34
43
04
5e
26
47
06
3a
12
2f
16
4a
4b
5d
1c
1c
3d
20
4a
63
38
20
0a
24
54
54
44
3b
4e
60
27
5b
1d
41
2a
25
61
04
49
0a
28
2d
4a
46
2a
42
3d
17
1f
38
3c
1d
3c
55
5b
61
0b
56
57
05
34
01
1c
24
39
28
41
11
19
38
43
5d
28
4a
19
2d
1b
06
51
54
2e
62
35
48
06
14
11
40
49
25
61
44
5b
2e
2e
45
2b
1e
53
5b
2f
10
41
48
5b
49
33
22
48
31
03
43
4f
26
3a
4e
06
17
03
29
0b
3b
3c
53
09
0f
32
28
05
3d
13
0b
54
16
05
35
52
34
4c
5b
13
4e
20
18
27
33
58
4c
19
5d
1d
21
38
50
20
4b
0b
10
34
32
13
28
1a
2c
55
08
4d
4c
2a
53
3e
35
33
42
38
16
06
52
42
5b
2a
60
13
09
56
0a
39
59
4c
0d
0c
22
30
1e
4d
5a
4e
60
33
3a
2d
46
1d
49
24
29
3c
54
18
25
1a
36
22
4e
0c
33
32
47
49
56
41
21
46
29
47
31
5f
39
1b
3c
08
2d
2c
57
53
09
14
05
02
2b
36
32
00
21
0a
09
4e
24
60
14
51
45
4d
54
0c
20
22
0d
41
60
4a
60
20
33
22
09
17
0c
2d
24
60
1f
01
0d
1b
1b
09
0b
4e
2b
4e
4a
27
17
3e
23
36
0f
01
21
2a
0a
2c
15
36
12
16
45
09
24
39
0f
34
3a
30
5e
44
2c
0f
4a
0e
45
63
10
5e
08
53
2e
42
53
5c
56
1b
3c
3d
2a
1d
5f
2c
61
3f
1b
5f
1d
3e
57
0f
5a
2f
1c
20
1c
4b
4a
0d
47
51
33
15
45
00
32
54
37
5b
55
3b
3a
11
55
4c
30
04
61
45
05
2f
05
0c
5b
2b
47
31
3c
09
4e
0e
2a
44
23
2f
43
28
3b
3a
53
52
3b
60
2b
26
10
25
38
54
24
18
4d
2f
52
3c
52
5e
08
19
20
19
45
30
4f
28
48
38
58
06
45
16
00
4d
2f
54
36
11
59
5e
03
58
02
2b
2f
47
41
63
01
0d
54
07
52
19
23
05
39
56
31
04
09
0e
03
3e
4f
27
46
3d
41
39
4b
59
36
12
5d
0f
20
31
4e
0c
58
30
19
05
39
34
14
12
35
4f
22
56
1c
0c
32
11
0c
1b
16
45
50
5f
0d
0a
3f
33
30
5b
0f
32
3c
4f
1d
23
01
09
1e
42
32
01
39
31
2c
18
33
05
04
51
5c
39
5a
16
17
5d
12
33
2d
4d
4c
30
22
20
1d
1a
59
48
00
0c
11
12
2e
34
05
46
34
27
02
52
11
5b
06
11
37
17
23
01
35
2f
08
16
26
0a
38
38
36
3e
49
09
25
3d
0b
2b
20
2f
27
06
09
2f
3e
3f
3e
57
49
63
30
54
2a
20
50
5a
40
07
5a
4e
47
34
12
60
03
42
20
62
33
0c
27
1c
13
21
4a
22
24
29
58
45
1c
20
0a
41
2e
01
04
12
0c
1e
04
00
48
5c
45
34
4c
1f
11
16
21
15
05
2a
26
4a
2a
3e
43
40
0e
2b
5f
54
42
50
39
17
24
0c
1e
15
4a
31
25
28
5d
55
18
0b
41
52
56
35
63
17
2f
42
18
24
06
11
15
1f
50
27
41
43
5c
40
0a
55
49
33
16
50
15
2b
3f
35
22
1c
48
4f
5c
22
5f
26
2c
21
12
41
1c
21
47
3f
3d
2b
5e
05
4e
59
07
1c
05
23
2e
56
44
11
01
1d
0c
5f
56
2a
24
5e
61
21
33
2e
13
13
0f
48
01
4f
43
57
16
37
21
13
08
1b
1d
23
62
60
07
63
4b
1b
57
61
52
14
44
5a
43
60
3c
41
5c
14
41
14
2f
34
11
51
18
26
18
2b
23
15
00
16
29
41
5e
28
45
40
49
5d
02
61
59
25
5b
42
45
53
53
3f
4b
34
1b
31
61
51
62
56
12
5a
5e
25
1e
42
35
05
46
20
06
44
0e
05
06
54
5f
01
40
29
43
25
62
25
46
05
39
54
0a
40
44
39
11
54
45
58
34
13
4e
16
18
23
3a
56
63
1b
2b
10
0b
40
56
05
01
52
53
57
56
46
24
3a
39
3b
37
36
08
4b
4d
5c
2d
11
50
20
28
44
5a
61
1b
61
04
24
48
21
1d
51
08
35
0d
30
15
37
2e
31
05
02
25
1d
23
12
5d
4b
50
37
18
02
0b
16
33
10
4c
28
2d
0b
3a
5b
06
01
1a
44
03
59
2a
06
39
46
62
36
51
08
2d
28
18
28
5a
22
1d
20
28
56
02
26
29
23
62
26
4b
16
38
38
5f
63
28
57
25
5e
4d
4e
1d
4b
45
39
61
19
18
2f
16
5e
22
3b
58
0b
26
45
26
3b
1a
23
54
03
25
3f
3d
58
17
31
33
0d
12
5a
48
61
4d
08
00
0e
33
08
0a
02
09
3e
43
50
04
27
4d
21
63
1d
00
32
43
4c
17
2b
5a
5a
17
2e
52
34
50
51
51
50
54
01
61
17
56
0c
0e
3d
3b
30
0e
27
1d
2f
47
0d
30
14
33
55
00
47
2e
3b
13
3c
32
30
3c
15
0e
08
2a
11
0c
26
16
46
32
29
52
34
29
2a
1a
07
33
14
19
0f
06
05
07
23
62
5a
58
5b
20
0e
63
23
56
18
03
5c
4b
0b
42
22
35
36
1a
26
14
4d
19
06
01
1c
32
1c
4d
29
29
5b
5c
23
61
4c
21
06
1f
58
03
37
0c
63
1b
04
62
2e
27
5f
4a
48
36
06
3c
39
0d
19
08
28
63
4f
52
1c
1a
09
34
50
43
41
59
50
5a
32
49
59
25
20
4f
03
29
20
54
08
61
19
28
27
4b
41
50
0c
2c
47
40
01
37
00
09
04
1a
02
2b
35
43
17
12
3f
29
10
09
53
10
47
58
5e
49
53
30
5c
3b
42
38
00
2a
32
1a
0d
15
42
08
2e
02
08
5b
3d
4a
2f
3d
44
03
2c
4b
55
3e
23
54
40
2b
4b
19
45
4a
56
5a
4d
4a
0d
5f
2c
31
4f
08
2c
36
56
42
50
18
38
39
62
2d
4c
0f
40
37
4c
3c
3d
3e
1a
29
26
52
32
59
4f
3f
1c
1f
43
38
5c
50
46
12
49
09
35
17
62
54
56
0d
48
4c
29
40
08
0b
23
51
14
28
04
12
18
2b
54
4b
0a
2f
20
13
3b
13
34
4f
3b
09
32
53
04
22
3b
21
05
3a
49
40
4d
1a
60
58
23
2e
47
5b
20
52
18
19
59
33
2b
12
1d
27
06
10
25
1d
07
45
0c
53
2e
53
5d
59
3d
16
50
43
5a
12
61
61
27
3d
21
56
2c
1e
58
5b
53
2f
36
4a
13
44
24
54
46
41
39
01
57
53
1c
62
5e
23
18
0e
03
3c
62
19
1a
07
4f
0d
5a
11
26
2c
44
0e
0a
17
4b
08
31
35
43
1c
42
3a
61
21
36
5f
4a
40
13
31
19
14
02
5c
00
15
02
61
36
2a
53
0a
37
36
3c
20
4a
0e
4c
1a
57
1f
18
5d
49
3d
06
54
55
12
44
0b
20
2c
26
48
4b
3e
41
01
4b
45
17
17
00
2b
56
54
57
18
38
0f
26
4a
44
0d
2b
14
15
09
14
07
5e
3b
54
02
4a
16
4c
2a
58
47
0f
60
2e
5c
39
5c
34
29
5e
4e
0f
17
49
37
5e
58
33
0c
05
62
02
09
5b
60
58
07
47
3d
3e
42
01
42
1e
3e
39
1b
48
31
17
0c
38
5f
49
46
0d
4a
24
5f
24
1f
2c
15
07
14
21
3f
43
06
21
50
20
16
1b
44
05
20
03
15
05
24
24
18
5e
16
38
1a
2c
54
2e
31
44
15
1d
11
1e
42
29
18
28
62
02
54
52
30
55
32
15
4e
21
23
07
4a
3b
2f
48
0e
1f
06
3e
45
08
24
2f
11
55
4e
04
60
4d
4c
0a
3d
23
19
1e
2b
3d
1d
0c
2d
07
2b
4b
2c
63
2a
2e
02
61
00
50
1b
34
1c
26
57
5d
04
19
5c
62
48
2e
5f
18
1a
17
1c
36
0d
43
07
1a
1c
24
18
34
52
48
4c
3c
2f
04
0f
3c
47
4a
01
62
16
4b
32
39
2f
1b
11
2e
1f
54
06
03
0b
3b
11
0d
57
2d
46
56
48
27
21
38
4c
5b
0b
57
33
1c
45
26
17
25
4c
30
4d
09
04
35
35
0f
28
38
5f
09
57
54
4b
0d
20
34
4b
58
39
50
37
31
24
32
0a
4b
30
49
03
21
4d
4e
15
56
3a
1c
23
2e
1e
61
16
1e
3f
36
16
0f
55
5f
01
5f
4c
58
2a
06
56
10
25
31
39
1e
38
2a
4e
09
26
36
62
20
3c
54
00
61
55
39
02
57
3b
61
61
31
03
5f
21
40
1f
21
0d
44
2b
10
60
2e
22
1f
60
26
4e
51
36
3d
43
43
51
3e
23
4d
24
42
3e
25
38
28
12
0a
35
55
1d
22
2f
11
0b
24
5e
4b
26
61
43
39
3b
14
5e
58
36
5e
05
11
1e
33
25
09
16
09
42
51
1d
0d
46
24
07
1b
05
59
1f
2a
16
33
16
4c
21
33
59
37
27
30
52
61
59
41
5b
3f
49
5a
0b
1e
37
53
34
04
5c
56
17
3c
22
63
3c
3e
03
0a
21
2f
2d
25
03
25
4b
1a
31
0a
4d
3d
18
51
46
3b
05
06
61
09
5f
48
57
60
22
11
3a
3a
62
1c
58
0a
47
4f
47
12
03
3b
0f
26
4c
49
60
1a
35
25
0c
08
5e
38
1a
61
43
29
23
5f
42
54
15
47
15
55
2d
00
2d
2a
62
0d
24
55
3c
36
45
52
4e
2a
13
17
47
58
34
38
35
28
5e
0e
5e
3f
60
48
06
43
30
1d
11
2d
23
12
55
1d
20
20
2c
50
38
02
63
04
20
10
11
29
20
1b
16
10
3b
12
30
0f
15
30
48
05
40
29
50
2b
2d
61
0b
38
43
3c
18
28
3c
30
2d
18
59
4d
14
5e
27
47
02
07
53
1a
2f
2b
4a
2d
43
0f
16
27
63
29
1a
38
00
09
52
2f
34
09
5c
48
4c
43
3f
4c
4f
46
0c
17
20
2e
46
24
07
0f
3c
54
52
18
0c
0d
58
55
54
60
54
06
54
5b
49
2d
1b
07
15
27
14
09
5f
61
17
14
38
3c
0b
1d
05
5b
59
1a
52
09
57
4d
36
2e
39
5e
06
15
4c
3f
0c
41
29
5e
1a
50
48
20
2a
20
47
21
01
56
40
4a
01
17
25
11
08
5e
4d
4a
22
4a
01
48
0d
11
2e
42
28
23
24
00
1d
0d
4b
10
2e
36
52
28
47
1c
07
40
40
2b
40
2d
08
5b
3d
07
17
44
07
18
60
42
28
0c
3d
05
0a
45
30
17
1c
48
06
0d
2f
56
4f
28
33
5c
61
3d
3d
2d
24
5a
45
2a
25
30
3b
08
58
0a
00
55
17
0d
52
3c
37
34
36
2c
1b
0c
2b
4d
4b
5f
0e
62
08
31
0a
10
01
41
0c
1c
21
20
62
55
1b
0c
24
57
3d
2e
37
0e
3f
44
5f
30
5c
19
30
39
59
54
60
03
52
34
11
62
48
0c
2e
40
2d
01
4d
35
55
4a
38
14
4e
1a
46
32
5a
10
42
24
34
61
5c
25
17
01
39
01
1b
1b
03
11
60
45
35
30
37
61
0d
39
62
16
3a
19
02
0d
5f
62
22
00
62
29
52
2c
50
1e
12
5a
08
14
03
03
46
59
03
45
1e
26
2a
47
11
19
3e
19
2e
11
50
44
3b
53
59
59
49
20
27
3b
1f
4b
24
1d
2d
44
62
04
34
57
5d
4d
47
20
15
3c
60
14
5a
29
58
28
2d
5c
4f
5b
46
03
4b
2b
1d
49
29
0e
39
09
36
21
44
24
4f
57
14
40
1a
61
16
3d
5a
1c
17
60
3d
5b
21
5d
1e
35
39
38
02
4f
02
63
29
50
5f
36
47
50
2f
01
22
04
09
58
24
0c
3d
2d
31
47
00
48
33
2f
4a
25
34
23
4e
58
63
27
0f
2d
50
3f
12
54
3e
2c
15
42
1f
63
06
1f
5b
16
42
11
28
01
01
02
2d
4b
45
4c
1a
4b
3b
45
31
4d
0f
1e
1f
04
55
4c
1f
06
04
3a
21
40
1b
53
5d
5f
4a
34
38
07
50
28
0d
25
32
2e
01
1d
51
5e
18
38
43
5e
60
38
22
09
5d
24
08
2e
41
29
5d
5a
31
0c
49
1c
63
18
5a
2d
3c
32
5b
19
5b
24
43
5d
31
28
00
22
0a
1c
4f
16
4e
16
30
45
3b
0f
0e
3c
08
0f
15
04
39
50
1a
57
36
1a
38
41
2a
47
19
32
26
2e
59
36
4b
15
5d
1e
00
01
5f
2a
48
49
2c
3e
47
55
60
53
4c
47
0d
4c
49
3d
46
61
22
42
3c
39
03
08
38
1a
38
21
36
51
2e
4c
1f
20
5e
2b
59
62
33
2e
61
19
42
1c
07
0c
39
5a
2c
33
21
22
31
24
20
62
21
5a
3b
45
1a
57
5b
18
29
23
44
2f
07
0a
3c
47
36
15
0b
40
3c
37
28
01
2a
08
30
31
47
3c
48
19
60
1b
46
57
52
3e
29
18
47
59
19
5e
02
62
47
62
5a
39
40
04
13
05
51
2a
2e
06
58
30
04
3b
63
2e
00
4d
18
5f
52
05
59
50
40
4e
1d
14
25
50
43
59
13
61
4c
18
02
11
04
12
5f
55
27
55
11
06
4a
58
4b
5e
5a
0e
0c
2f
21
3b
20
48
2c
02
4e
47
5a
05
3f
06
4d
4f
05
0a
27
59
22
23
5b
40
06
52
15
46
42
2b
56
00
05
4d
59
27
0d
51
03
47
3f
19
29
51
34
63
46
0d
4d
3b
05
2a
28
08
0d
37
55
07
24
59
49
37
58
16
0e
5d
10
07
35
1e
3e
27
59
33
50
3e
13
63
06
55
2c
16
5c
62
04
07
59
5d
3a
15
08
1d
27
34
17
20
1a
43
52
1f
4a
17
18
54
2c
54
0e
54
11
08
5d
47
1c
4b
02
02
32
4f
57
5f
3f
01
1f
20
50
4f
15
01
06
4c
37
39
37
5e
04
46
2f
23
03
1c
0d
1a
43
26
02
4b
2f
09
45
33
1f
11
26
22
2d
04
30
1b
15
31
32
61
55
3c
53
24
57
1a
05
33
5a
5b
4b
40
05
37
3d
2a
10
2c
1f
37
16
24
06
41
1b
21
54
50
47
4c
4b
27
49
06
5e
5f
2a
35
0c
15
56
31
48
10
30
5c
07
15
62
36
45
5c
07
51
41
2d
1e
26
49
33
21
19
49
20
4f
2a
4c
26
17
2a
53
06
20
08
1f
07
41
3c
5b
2c
36
43
22
4d
3d
12
23
2d
1a
43
31
15
5d
04
12
2f
17
34
4d
55
16
0c
1e
01
4f
20
15
40
0c
4d
0b
23
1e
58
48
04
01
37
05
20
57
1b
18
34
09
3d
27
5b
31
0c
60
02
43
01
23
36
50
0b
32
36
3e
1c
2d
0c
28
29
42
07
5f
35
0d
4b
40
0f
2f
57
50
0f
33
14
09
11
50
38
17
2d
53
57
3d
1f
35
32
10
17
17
19
5c
37
51
0f
00
40
37
0d
2f
3c
17
50
3c
04
05
04
0b
26
14
0c
37
1b
4d
02
57
01
34
60
08
36
01
14
5c
49
54
63
00
3d
02
27
3e
06
3e
5d
45
20
0d
0e
39
61
0d
09
0b
43
30
49
4a
0a
4b
18
45
24
26
4e
56
04
57
61
47
23
16
61
61
61
43
12
3f
08
18
29
62
61
12
18
37
47
34
06
00
1e
31
2c
21
59
56
20
26
38
08
5d
1c
0c
33
50
2a
01
37
41
10
36
61
36
0a
39
63
5a
45
33
46
40
34
19
5c
46
5a
15
4c
00
4e
1c
5b
00
4f
0d
40
53
5b
08
3a
1c
62
16
1d
4c
32
48
1c
51
25
2c
40
1c
35
4a
63
00
13
34
1d
45
4c
39
02
0d
02
42
5e
37
5c
5d
58
17
26
1b
5d
42
54
2f
1f
26
0e
19
2d
3a
47
21
44
08
5d
03
4a
1e
32
06
44
10
53
0e
4b
36
63
2b
2a
25
0a
38
43
0c
3e
24
1d
2e
02
38
34
35
63
2f
2d
47
50
42
24
5e
36
41
28
38
49
2d
0a
18
5c
07
1d
54
38
47
4e
0b
58
47
13
3d
10
51
55
3c
59
42
0b
11
14
00
1c
3c
47
63
15
27
51
3a
63
16
18
0a
11
31
18
37
3d
2f
07
52
56
58
5c
55
3e
10
5f
1f
1a
13
05
3f
43
40
61
35
04
59
5b
42
05
26
31
1f
31
46
09
54
22
06
26
26
5f
51
38
34
13
05
23
44
44
00
3d
33
3a
33
29
05
54
62
09
03
03
2c
18
18
60
51
07
58
3d
4b
4f
1f
18
1c
47
25
3d
09
51
2b
51
16
1e
62
31
09
1e
19
59
01
3e
03
3e
5f
2e
2b
59
4e
60
32
27
4e
1b
50
1f
59
53
5d
24
52
24
19
1e
03
4e
19
51
39
06
0c
62
29
05
22
17
29
0c
35
50
50
4a
05
26
50
12
24
16
4b
17
61
11
23
03
31
63
5a
4f
26
47
61
1a
2d
18
31
2a
5d
54
61
2b
24
06
54
57
27
21
41
54
39
43
4f
33
33
4c
2e
27
22
26
41
13
55
1e
04
2a
61
23
2d
01
3f
5b
5c
32
51
4d
22
3e
1d
5a
38
4f
19
02
50
28
2d
48
5a
4f
01
23
5b
4f
4a
63
3a
33
01
5a
2c
63
3f
22
4e
40
15
47
46
30
05
50
34
3a
47
60
09
56
52
27
02
38
0a
27
3e
5d
0b
0e
04
52
3e
0d
44
2c
05
46
00
0f
3d
10
0f
5d
49
13
1b
23
55
5f
20
5a
42
54
39
4f
00
25
39
1e
15
55
12
3a
50
02
00
62
56
3a
4e
57
5f
10
27
32
1f
09
09
3f
0b
09
3e
62
13
28
25
42
08
1c
44
5f
34
1d
3a
3f
5b
14
0d
0a
0c
32
4d
49
1f
46
52
0d
03
0c
29
0d
49
4c
5a
03
14
03
54
20
00
3e
1e
15
3d
47
56
22
30
4d
59
14
50
4a
34
51
24
00
07
60
40
2e
1f
0c
17
14
20
37
2e
25
58
22
25
38
08
3e
33
5b
1b
1a
0b
0b
22
0a
30
16
2c
25
1f
43
40
0b
10
5b
25
50
37
17
5a
03
62
22
5d
1d
36
63
20
10
54
16
60
27
2d
56
5e
2b
49
27
48
4f
26
32
4b
4e
2c
17
45
5a
0a
3f
55
23
37
0a
0e
5d
3c
04
24
1b
5c
05
45
36
15
36
59
4c
10
37
45
4d
3b
23
07
55
24
4c
27
09
53
1c
55
63
23
07
1c
5e
2a
5f
03
19
0d
2a
23
60
16
48
30
39
1f
1c
33
49
18
38
57
39
61
4a
36
13
2f
36
1c
4e
52
1f
04
3a
28
63
1c
3a
42
22
1d
41
28
09
2b
16
29
63
21
51
32
17
43
52
1f
31
2f
47
3a
2a
2d
33
5e
4e
20
2c
02
1f
05
17
07
04
5e
41
2e
5b
45
28
46
01
25
18
54
2b
27
2f
4b
55
41
15
4d
22
0e
63
57
33
17
48
2e
46
10
3f
4b
51
24
04
43
32
03
36
35
1a
4e
34
60
0a
23
25
04
27
4e
3b
1e
4e
5e
1b
43
3b
13
1f
54
42
32
31
26
50
3c
45
3b
36
30
1a
0e
43
09
62
21
03
05
0a
22
42
1f
5d
14
50
48
56
2f
51
55
21
54
2b
5a
05
32
15
33
46
35
17
39
35
04
5e
26
29
25
57
46
0e
5d
49
55
2f
60
5e
00
35
58
26
2e
4d
19
5b
20
60
24
45
2b
54
3f
5f
59
03
55
23
21
3e
1b
25
18
63
47
44
54
22
0f
19
5a
01
3d
17
3f
58
0c
45
14
57
2f
04
4a
0e
51
10
0f
2a
27
1f
52
03
00
39
09
1d
44
53
2b
32
33
0b
2c
2a
2a
1b
2d
5e
54
3d
59
2d
57
54
5f
26
2f
5b
51
59
12
4e
23
36
28
1b
05
22
14
34
48
43
2b
05
09
0e
54
2c
44
4c
47
1b
5a
06
50
0e
19
4c
14
22
5a
38
1f
3a
20
36
26
18
17
59
54
30
41
38
23
07
40
42
11
60
14
37
14
39
24
51
13
35
59
36
3c
35
48
4e
01
5c
21
16
02
28
59
26
5d
4e
2c
36
54
10
20
55
3c
11
3b
0e
39
4f
39
3b
23
35
41
47
45
31
39
52
42
44
30
4c
63
1b
0c
2b
4b
21
47
5a
61
58
53
5c
0e
3f
10
63
39
1d
48
1f
5d
5f
49
2b
53
39
23
31
48
03
30
1e
20
5a
20
0a
36
05
35
59
0e
28
5b
57
2b
5b
45
1b
52
13
28
3c
3b
2d
32
19
55
5d
0c
50
54
21
07
42
34
15
2b
3e
27
2d
58
18
26
34
04
17
26
3f
29
2a
55
27
1e
39
5c
46
52
1f
4b
26
06
41
36
63
07
27
27
51
5d
4d
2b
1b
08
46
11
42
23
47
41
5e
3e
38
4b
4b
0c
3b
55
48
1d
36
5a
10
1a
07
3f
58
40
5a
10
35
28
0c
41
16
43
07
26
5d
0f
35
21
1f
2c
31
54
2c
24
36
23
37
3d
19
00
4c
4f
21
07
4b
23
2b
13
4b
3c
4c
15
15
36
15
32
55
07
39
3c
2a
01
1f
45
2f
3d
30
11
43
46
43
04
4d
4d
40
47
1e
2f
28
4d
48
5e
06
52
10
1a
56
5d
03
33
10
21
62
38
3e
17
63
0a
26
1b
24
19
48
27
1c
59
18
1a
61
56
01
30
32
10
0d
25
29
26
1c
45
1b
34
2f
4c
5a
01
19
29
5c
0e
59
5e
34
11
0f
1f
15
3f
07
3f
10
54
04
08
0e
5b
44
3a
55
38
32
52
01
51
49
47
54
01
0e
0e
30
2f
57
02
38
25
54
39
47
0a
50
37
0b
5e
15
3b
27
37
09
2d
2d
5d
02
44
37
52
17
42
1c
61
4e
44
1e
32
2d
4c
5f
63
2c
03
51
14
15
3e
11
63
52
63
11
24
37
5b
23
63
5e
45
47
10
53
28
0f
41
27
54
60
44
05
3f
14
33
54
5b
43
43
20
23
54
47
13
20
63
5e
46
2f
2d
36
5b
41
49
17
00
09
2e
47
29
2e
21
0d
01
4a
13
5c
5b
5c
43
5b
01
0e
3e
5f
0c
2f
54
12
31
25
0b
28
51
1e
53
53
2c
61
4e
38
2d
0e
62
14
38
17
3c
26
35
2b
49
62
28
03
06
25
11
39
25
50
1d
46
12
22
41
2b
20
06
2e
5b
5f
0f
30
21
00
3d
50
06
5f
62
31
50
38
2f
17
33
3e
47
54
3e
29
25
1f
3a
23
20
5a
5b
4f
0d
2a
29
54
4f
04
4d
3f
10
31
20
30
27
17
1b
34
12
14
58
61
18
42
0c
11
3a
63
5d
61
4b
14
02
5d
5d
5a
5a
45
08
02
56
14
14
0b
0e
5f
53
10
58
4c
3a
1e
2e
43
54
20
27
18
23
5d
1f
2f
32
15
5c
36
06
4e
03
2b
0a
02
4c
53
45
22
29
47
08
21
19
0e
0b
1d
09
15
53
55
38
1a
08
2e
19
10
1f
32
53
5e
1f
5c
0f
42
1e
17
5c
29
5b
06
32
16
09
55
10
28
1d
53
3b
3b
06
33
34
28
42
4f
32
4b
10
12
44
2e
01
1b
39
3b
4e
0a
63
56
1b
45
54
2c
57
34
2a
28
1f
63
33
0a
3d
02
60
04
41
58
02
04
28
2c
60
48
5f
2f
22
39
32
52
3d
58
42
42
38
3a
3e
04
52
3a
34
44
43
36
03
1c
2a
30
1a
10
37
59
15
5a
63
19
3a
42
4f
3d
2e
15
3d
60
19
56
4d
62
4c
4c
17
22
5e
02
30
28
4b
09
25
14
52
3e
32
3a
5a
19
2c
55
1c
5c
19
37
36
3e
4b
02
49
50
01
40
06
62
31
56
5a
1a
29
60
59
45
33
4b
01
07
22
07
05
23
2d
30
3d
57
60
02
38
2f
4e
56
52
30
1c
27
53
4a
57
61
0d
54
63
15
53
1d
07
39
5a
09
22
1a
53
4a
17
30
0a
4a
45
5d
04
4c
33
03
26
3e
34
49
24
1b
16
2e
02
5b
5b
06
14
2a
3d
40
4d
08
27
34
07
30
16
3b
50
5b
31
42
24
35
42
01
14
30
1f
1c
31
05
27
1d
60
58
2f
54
2a
0e
25
12
5c
15
60
29
1a
23
16
4a
18
45
3a
12
23
5f
24
31
05
49
3e
1f
09
54
39
55
06
0f
03
5d
3e
27
2b
34
1c
4f
48
59
10
1d
4a
4a
60
4d
43
3b
44
3e
3f
10
0d
62
4c
51
4f
32
37
4c
4f
4b
57
30
59
32
10
53
0f
22
38
5e
24
40
16
10
5b
09
40
50
0b
20
10
45
5b
09
43
1c
19
59
60
10
33
0c
30
0e
2c
40
53
22
29
3e
5d
42
03
59
22
06
35
52
49
61
2f
38
53
11
2c
3b
44
63
00
02
06
35
25
4f
02
54
57
56
35
31
52
0d
11
22
10
17
27
05
36
29
29
5e
4f
5e
5f
20
1e
23
50
62
3b
13
03
41
0c
2c
3b
2c
27
07
4c
2a
47
51
34
52
34
07
2f
11
34
3b
3d
2b
42
59
25
46
2c
2f
42
61
36
41
0e
3a
18
1b
01
2a
44
27
40
0f
59
62
4d
60
40
2b
36
28
16
08
23
5b
63
33
3a
62
31
5a
23
41
55
2a
06
3c
32
5d
03
31
2c
3d
2f
57
